{
  "version": "cor-1.0",
  "vocab_size_reel": 7995,
  "vocab_size_cible": 8000,
  "nb_tokens_speciaux": 60,
  "premier_id_bpe": 60,
  "vocab": {
    "[PAD]": 0,
    "[UNK]": 1,
    "[BOS]": 2,
    "[EOS]": 3,
    "[SEP]": 4,
    "[MASK]": 5,
    "[DOC]": 6,
    "[ART]": 7,
    "[REP]": 8,
    "[JUR]": 9,
    "[CM]": 10,
    "[GA]": 11,
    "[CG]": 12,
    "[CD]": 13,
    "[TD]": 14,
    "[CF]": 15,
    "[GQ]": 16,
    "[CI]": 17,
    "[SN]": 18,
    "[BJ]": 19,
    "[BF]": 20,
    "[ML]": 21,
    "[NE]": 22,
    "[TG]": 23,
    "[GN]": 24,
    "[MG]": 25,
    "[KM]": 26,
    "[DJ]": 27,
    "[MR]": 28,
    "[OHADA]": 29,
    "[CEMAC]": 30,
    "[UEMOA]": 31,
    "[CIMA]": 32,
    "[OAPI]": 33,
    "[CIPRES]": 34,
    "[UA]": 35,
    "[COBAC]": 36,
    "[AUDCG]": 37,
    "[AUSCGIE]": 38,
    "[AUPSRVE]": 39,
    "[AURVE]": 40,
    "[AUPAP]": 41,
    "[AUTF]": 42,
    "[AUOHSADA]": 43,
    "[TRAVAIL]": 44,
    "[PENAL]": 45,
    "[FONCIER]": 46,
    "[FISCAL]": 47,
    "[BANCAIRE]": 48,
    "[SOCIAL]": 49,
    "[FAMILLE]": 50,
    "[ARBITRAGE]": 51,
    "[DOUANE]": 52,
    "[ENVIRON]": 53,
    "[LOI]": 54,
    "[DECRET]": 55,
    "[ARRETE]": 56,
    "[CIRCULAIRE]": 57,
    "[JUGEMENT]": 58,
    "[ARRET]": 59,
    "ccja": 60,
    "beac": 61,
    "bvmac": 62,
    "cosumaf": 63,
    "cndp": 64,
    "tgi": 65,
    "tcs": 66,
    "tpi": 67,
    "caa": 68,
    "cour-supreme": 69,
    "tribunal-administratif": 70,
    "conseil-etat": 71,
    "barreau": 72,
    "parquet": 73,
    "greffe": 74,
    "huissier": 75,
    "notaire": 76,
    "avocat": 77,
    "magistrat": 78,
    "greffier": 79,
    "acte-uniforme": 80,
    "exequatur": 81,
    "sentence-arbitrale": 82,
    "clause-compromissoire": 83,
    "injonction-payer": 84,
    "saisie-attribution": 85,
    "saisie-immobiliere": 86,
    "saisie-vente": 87,
    "saisie-conservatoire": 88,
    "voie-execution": 89,
    "procedure-collective": 90,
    "liquidation-judiciaire": 91,
    "redressement-judiciaire": 92,
    "concordat-preventif": 93,
    "licenciement": 94,
    "preavis": 95,
    "smig": 96,
    "smag": 97,
    "indemnite-licenciement": 98,
    "rupture-abusive": 99,
    "rupture-conventionnelle": 100,
    "demission": 101,
    "suspension-contrat": 102,
    "periode-essai": 103,
    "convention-collective": 104,
    "inspection-travail": 105,
    "tribunal-travail": 106,
    "prudhommes": 107,
    "heure-supplementaire": 108,
    "conge-annuel": 109,
    "conge-maternite": 110,
    "accident-travail": 111,
    "titre-foncier": 112,
    "immatriculation": 113,
    "cadastre": 114,
    "expropriation": 115,
    "bail-emphyteotique": 116,
    "bail-commercial": 117,
    "servitude": 118,
    "mitoyennete": 119,
    "usufruit": 120,
    "nue-propriete": 121,
    "hypotheque": 122,
    "droit-superficie": 123,
    "domaine-public": 124,
    "domaine-prive": 125,
    "lotissement": 126,
    "sarl": 127,
    "sa": 128,
    "sas": 129,
    "snc": 130,
    "gie": 131,
    "nantissement": 132,
    "gage": 133,
    "warrant": 134,
    "lettre-change": 135,
    "billet-ordre": 136,
    "protêt": 137,
    "aval": 138,
    "endossement": 139,
    "registre-commerce": 140,
    "numero-contribuable": 141,
    "assemblée-generale": 142,
    "conseil-administration": 143,
    "commissaire-comptes": 144,
    "garde-a-vue": 145,
    "detention-provisoire": 146,
    "mise-en-examen": 147,
    "non-lieu": 148,
    "classement": 149,
    "liberté-provisoire": 150,
    "cautionnement": 151,
    "perquisition": 152,
    "instruction": 153,
    "requisitoire": 154,
    "mise-en-demeure": 155,
    "amende": 156,
    "sursis": 157,
    "contrainte-corps": 158,
    "fcfa": 159,
    "xaf": 160,
    "xof": 161,
    "tva": 162,
    "is": 163,
    "irpp": 164,
    "droit-douane": 165,
    "valeur-en-douane": 166,
    "dedouanement": 167,
    "transit": 168,
    "entrepot": 169,
    "franchise": 170,
    "exoneration": 171,
    "redressement-fiscal": 172,
    "controle-fiscal": 173,
    "avis-mise-recouvrement": 174,
    "ratio-solvabilite": 175,
    "fonds-propres": 176,
    "credit-bancaire": 177,
    "escompte": 178,
    "refinancement": 179,
    "credit-documentaire": 180,
    "lettre-credit": 181,
    "garantie-bancaire": 182,
    "caution-bancaire": 183,
    "compte-dormant": 184,
    "lutte-blanchiment": 185,
    "financement-terrorisme": 186,
    "kyc": 187,
    "due-diligence": 188,
    "mariage-coutumier": 189,
    "dot": 190,
    "polygamie": 191,
    "divorce": 192,
    "separation-corps": 193,
    "pension-alimentaire": 194,
    "garde-enfant": 195,
    "adoption": 196,
    "tutelle": 197,
    "succession": 198,
    "heritage": 199,
    "testament": 200,
    "partage-successoral": 201,
    "article": 202,
    "alinea": 203,
    "paragraphe": 204,
    "loi": 205,
    "decret": 206,
    "ordonnance": 207,
    "arrete": 208,
    "circulaire": 209,
    "note-service": 210,
    "jugement": 211,
    "arret": 212,
    "ordonnance-refere": 213,
    "contradit": 214,
    "appel": 215,
    "cassation": 216,
    "pourvoi": 217,
    "moyen-cassation": 218,
    "!": 219,
    "\"": 220,
    "%": 221,
    "(": 222,
    ")": 223,
    ",": 224,
    ".": 225,
    "/": 226,
    "0": 227,
    "1": 228,
    "2": 229,
    "3": 230,
    "4": 231,
    "5": 232,
    "6": 233,
    "7": 234,
    "8": 235,
    "9": 236,
    ":": 237,
    ";": 238,
    "</w>": 239,
    "?": 240,
    "[": 241,
    "]": 242,
    "_": 243,
    "a": 244,
    "b": 245,
    "c": 246,
    "d": 247,
    "e": 248,
    "f": 249,
    "g": 250,
    "h": 251,
    "i": 252,
    "j": 253,
    "k": 254,
    "l": 255,
    "m": 256,
    "n": 257,
    "o": 258,
    "p": 259,
    "q": 260,
    "r": 261,
    "s": 262,
    "t": 263,
    "u": 264,
    "v": 265,
    "w": 266,
    "x": 267,
    "y": 268,
    "z": 269,
    "{": 270,
    "}": 271,
    "°": 272,
    "à": 273,
    "â": 274,
    "ä": 275,
    "æ": 276,
    "è": 277,
    "é": 278,
    "ê": 279,
    "ë": 280,
    "î": 281,
    "ï": 282,
    "ô": 283,
    "ù": 284,
    "û": 285,
    "ü": 286,
    "ÿ": 287,
    "œ": 288,
    "e</w>": 289,
    "s</w>": 290,
    "t</w>": 291,
    "on": 292,
    "es</w>": 293,
    ".</w>": 294,
    "en": 295,
    "ti": 296,
    ",</w>": 297,
    "de</w>": 298,
    "r</w>": 299,
    "l</w>": 300,
    "la": 301,
    "an": 302,
    "tion": 303,
    "qu": 304,
    "ou": 305,
    "le</w>": 306,
    "in": 307,
    "la</w>": 308,
    "re</w>": 309,
    "pr": 310,
    "er": 311,
    "u</w>": 312,
    "tion</w>": 313,
    "pa": 314,
    "les</w>": 315,
    "ra": 316,
    "un": 317,
    "d</w>": 318,
    "li": 319,
    "es": 320,
    "ent</w>": 321,
    "et</w>": 322,
    "é</w>": 323,
    "em": 324,
    "con": 325,
    "i</w>": 326,
    "or": 327,
    "eu": 328,
    "des</w>": 329,
    "ta": 330,
    "om": 331,
    "ci": 332,
    "à</w>": 333,
    "ri": 334,
    "er</w>": 335,
    "oi": 336,
    "au": 337,
    "que</w>": 338,
    "ce</w>": 339,
    "du</w>": 340,
    "te</w>": 341,
    "en</w>": 342,
    "dé": 343,
    "el": 344,
    "si": 345,
    "di": 346,
    "té</w>": 347,
    "ai": 348,
    "re": 349,
    "ca": 350,
    "ré": 351,
    "su": 352,
    "ch": 353,
    "on</w>": 354,
    "ts</w>": 355,
    "com": 356,
    "ement</w>": 357,
    "a</w>": 358,
    "x</w>": 359,
    "ar": 360,
    "tre</w>": 361,
    "ant</w>": 362,
    "un</w>": 363,
    "une</w>": 364,
    ")</w>": 365,
    "tu": 366,
    "me</w>": 367,
    "est</w>": 368,
    "ex": 369,
    "c</w>": 370,
    "1</w>": 371,
    "pro": 372,
    "vi": 373,
    "po": 374,
    "tr": 375,
    "(</w>": 376,
    "ans</w>": 377,
    "tra": 378,
    "té": 379,
    "pou": 380,
    "20": 381,
    "par</w>": 382,
    "tions</w>": 383,
    "ju": 384,
    "ma": 385,
    "2</w>": 386,
    "ac": 387,
    "au</w>": 388,
    "na": 389,
    ":</w>": 390,
    "il</w>": 391,
    "se</w>": 392,
    "lu": 393,
    "ne</w>": 394,
    "dans</w>": 395,
    "pré": 396,
    "ou</w>": 397,
    "n</w>": 398,
    "eur</w>": 399,
    "fi": 400,
    "res</w>": 401,
    "par": 402,
    "ter": 403,
    "oit</w>": 404,
    "3</w>": 405,
    "19": 406,
    "ont</w>": 407,
    "dr": 408,
    "cons": 409,
    "pour</w>": 410,
    "0</w>": 411,
    "bi": 412,
    "rs</w>": 413,
    "du": 414,
    "ec": 415,
    "elle</w>": 416,
    "qui</w>": 417,
    "al": 418,
    "p</w>": 419,
    "5</w>": 420,
    "pé": 421,
    "ation</w>": 422,
    "4</w>": 423,
    "av": 424,
    "cu": 425,
    "né": 426,
    "aux</w>": 427,
    "6</w>": 428,
    "ces</w>": 429,
    "pu": 430,
    "ten": 431,
    "so": 432,
    "co": 433,
    "ce": 434,
    ";</w>": 435,
    "mo": 436,
    "ge</w>": 437,
    "/</w>": 438,
    "tes</w>": 439,
    "7</w>": 440,
    "sur</w>": 441,
    "f</w>": 442,
    "bli": 443,
    "ap": 444,
    "min": 445,
    "im": 446,
    "8</w>": 447,
    "qu</w>": 448,
    "ff": 449,
    "éta": 450,
    "tou": 451,
    "no": 452,
    "per": 453,
    "for": 454,
    "comm": 455,
    "pas</w>": 456,
    "ère</w>": 457,
    "cou": 458,
    "in</w>": 459,
    "lé": 460,
    "por": 461,
    "droit</w>": 462,
    "al</w>": 463,
    "mi": 464,
    "ble</w>": 465,
    "9</w>": 466,
    "si</w>": 467,
    "lo": 468,
    "gi": 469,
    "ait</w>": 470,
    "sou": 471,
    "ver": 472,
    "as": 473,
    "eurs</w>": 474,
    "lité</w>": 475,
    "ques</w>": 476,
    "ée</w>": 477,
    "dis": 478,
    "ve</w>": 479,
    "el</w>": 480,
    "res": 481,
    "titu": 482,
    "le": 483,
    "soci": 484,
    "inter": 485,
    "tés</w>": 486,
    "ence</w>": 487,
    "ance</w>": 488,
    "peu": 489,
    "ven": 490,
    "v</w>": 491,
    "onn": 492,
    "it</w>": 493,
    "parti": 494,
    "th": 495,
    "sont</w>": 496,
    "fon": 497,
    "aire</w>": 498,
    "plu": 499,
    "ents</w>": 500,
    "ad": 501,
    "il": 502,
    "200": 503,
    "ise</w>": 504,
    "déc": 505,
    "ser": 506,
    "y</w>": 507,
    "tri": 508,
    "am": 509,
    "publi": 510,
    "ire</w>": 511,
    "tte</w>": 512,
    "tant</w>": 513,
    "201": 514,
    "été</w>": 515,
    "de": 516,
    "és</w>": 517,
    "sion</w>": 518,
    "vo": 519,
    "bu": 520,
    "ob": 521,
    "être</w>": 522,
    "gu": 523,
    "ni": 524,
    "ori": 525,
    "iss": 526,
    "pli": 527,
    "o</w>": 528,
    "voi": 529,
    "at": 530,
    "eux</w>": 531,
    "isi": 532,
    "ction</w>": 533,
    "ais</w>": 534,
    "ses</w>": 535,
    "ment</w>": 536,
    "lement</w>": 537,
    "pri": 538,
    "contra": 539,
    "elles</w>": 540,
    "ag": 541,
    "nation": 542,
    "cette</w>": 543,
    "ès</w>": 544,
    "ter</w>": 545,
    "ro": 546,
    "mes</w>": 547,
    "cation</w>": 548,
    "plus</w>": 549,
    "pos": 550,
    "uni": 551,
    "son</w>": 552,
    "minis": 553,
    "sen": 554,
    "mar": 555,
    "tionn": 556,
    "ain": 557,
    "ois</w>": 558,
    "gé": 559,
    "cé": 560,
    "cri": 561,
    "peut</w>": 562,
    "emb": 563,
    "ran": 564,
    "end": 565,
    "00": 566,
    "cer": 567,
    "mê": 568,
    "aut": 569,
    "tation</w>": 570,
    "ons</w>": 571,
    "mé": 572,
    "fin": 573,
    "ins": 574,
    "ale</w>": 575,
    "entre</w>": 576,
    "posi": 577,
    "constitu": 578,
    "pers": 579,
    "tique</w>": 580,
    "m</w>": 581,
    "comp": 582,
    "emp": 583,
    "op": 584,
    "ab": 585,
    "isation</w>": 586,
    "ers</w>": 587,
    "ren": 588,
    "tive</w>": 589,
    "ration</w>": 590,
    "te": 591,
    "ouv": 592,
    "to": 593,
    "man": 594,
    "g</w>": 595,
    "même</w>": 596,
    "199": 597,
    "ins</w>": 598,
    "cr": 599,
    "b</w>": 600,
    "tres</w>": 601,
    "arti": 602,
    "leur</w>": 603,
    "jou": 604,
    "is</w>": 605,
    "juri": 606,
    "teur</w>": 607,
    "ine</w>": 608,
    "ces": 609,
    "mais</w>": 610,
    "dem": 611,
    "ph": 612,
    "tran": 613,
    "comme</w>": 614,
    "ec</w>": 615,
    "pon": 616,
    "tif</w>": 617,
    "juridi": 618,
    "mon": 619,
    "cep": 620,
    "vent</w>": 621,
    "poli": 622,
    "inci": 623,
    "sé": 624,
    "et": 625,
    "pe</w>": 626,
    "rê": 627,
    "ent": 628,
    "jus": 629,
    "se": 630,
    "nu": 631,
    "géné": 632,
    "rè": 633,
    "eff": 634,
    "appli": 635,
    "avec</w>": 636,
    "da": 637,
    "don": 638,
    "ral</w>": 639,
    "cas</w>": 640,
    "ture</w>": 641,
    "cor": 642,
    "di</w>": 643,
    "pi": 644,
    "dre</w>": 645,
    "cré": 646,
    "bilité</w>": 647,
    "artic": 648,
    "inté": 649,
    "fait</w>": 650,
    "lor": 651,
    "pla": 652,
    "voir</w>": 653,
    "règ": 654,
    "ées</w>": 655,
    "va": 656,
    "ris": 657,
    "princi": 658,
    "tan": 659,
    "état</w>": 660,
    "ga": 661,
    "men": 662,
    "sui": 663,
    "af": 664,
    "tiv": 665,
    "internation": 666,
    "adminis": 667,
    "le_": 668,
    "ements</w>": 669,
    "do": 670,
    "droi": 671,
    "fé": 672,
    "taire</w>": 673,
    "gar": 674,
    "administra": 675,
    "procé": 676,
    "eu</w>": 677,
    "ll": 678,
    "gan": 679,
    "ainsi</w>": 680,
    "droits</w>": 681,
    "12": 682,
    "pres": 683,
    "aires</w>": 684,
    "lib": 685,
    "10": 686,
    "sur": 687,
    "bles</w>": 688,
    "tout</w>": 689,
    "nom": 690,
    "ss": 691,
    "ges</w>": 692,
    "j</w>": 693,
    "els</w>": 694,
    "organ": 695,
    "code</w>": 696,
    "oire</w>": 697,
    "cri</w>": 698,
    "ens</w>": 699,
    "ue</w>": 700,
    "lis": 701,
    "sec": 702,
    "cla": 703,
    "dire": 704,
    "ct": 705,
    "non</w>": 706,
    "ires</w>": 707,
    "ères</w>": 708,
    "dom": 709,
    "rela": 710,
    "ision</w>": 711,
    "présen": 712,
    "cdi</w>": 713,
    "che</w>": 714,
    "procédu": 715,
    "justi": 716,
    "11": 717,
    "fa": 718,
    "pour": 719,
    "cours</w>": 720,
    "gis": 721,
    "obli": 722,
    "no</w>": 723,
    "jet</w>": 724,
    "ils</w>": 725,
    "entre": 726,
    "autres</w>": 727,
    "trans": 728,
    "tiques</w>": 729,
    "doit</w>": 730,
    "disposi": 731,
    "sans</w>": 732,
    "respon": 733,
    "sy": 734,
    "fs</w>": 735,
    "gr": 736,
    "dou": 737,
    "aus": 738,
    "conse": 739,
    "servi": 740,
    "aff": 741,
    "condi": 742,
    "15": 743,
    "fra": 744,
    "emi": 745,
    "cel": 746,
    "t_": 747,
    "ous</w>": 748,
    "cour</w>": 749,
    "forma": 750,
    "article_": 751,
    "ci</w>": 752,
    "ales</w>": 753,
    "ii</w>": 754,
    "ru": 755,
    "char": 756,
    "tivi": 757,
    "tru": 758,
    "certa": 759,
    "soit</w>": 760,
    "gra": 761,
    "lan": 762,
    "ba": 763,
    "personn": 764,
    "anci": 765,
    "enti": 766,
    "sta": 767,
    "premi": 768,
    "embre</w>": 769,
    "vant</w>": 770,
    "lation</w>": 771,
    "ir</w>": 772,
    "ises</w>": 773,
    "deman": 774,
    "trai": 775,
    "ffi": 776,
    "qui": 777,
    "gn": 778,
    "tée</w>": 779,
    "rap": 780,
    "ctions</w>": 781,
    "dent</w>": 782,
    "deux</w>": 783,
    "produ": 784,
    "esti": 785,
    "eta": 786,
    "civ</w>": 787,
    "dont</w>": 788,
    "mu": 789,
    "198": 790,
    "rement</w>": 791,
    "régi": 792,
    "ie</w>": 793,
    "lors": 794,
    "estion</w>": 795,
    "péna": 796,
    "trav": 797,
    "fau": 798,
    "onne</w>": 799,
    "m0": 800,
    "prév": 801,
    "ér": 802,
    "société</w>": 803,
    "publique</w>": 804,
    "seu": 805,
    "fran": 806,
    "mes": 807,
    "juge</w>": 808,
    "z</w>": 809,
    "conseil</w>": 810,
    "ème</w>": 811,
    "17": 812,
    "oir</w>": 813,
    "contrat</w>": 814,
    "tribu": 815,
    "tives</w>": 816,
    "indi": 817,
    "13": 818,
    "erci": 819,
    "entrepr": 820,
    "rée</w>": 821,
    "pec": 822,
    "pe": 823,
    "fois</w>": 824,
    "rité</w>": 825,
    "ouver": 826,
    "10</w>": 827,
    "près</w>": 828,
    "sul": 829,
    "met": 830,
    "vre</w>": 831,
    "responsa": 832,
    "rêt</w>": 833,
    "tement</w>": 834,
    "autre</w>": 835,
    "qua": 836,
    "civi": 837,
    "ég": 838,
    "14": 839,
    "der": 840,
    "écu": 841,
    "clu": 842,
    "faire</w>": 843,
    "18": 844,
    "judi": 845,
    "vis": 846,
    "uti": 847,
    "nées</w>": 848,
    "tifs</w>": 849,
    "ants</w>": 850,
    "nouv": 851,
    "tro": 852,
    "pl": 853,
    "sous</w>": 854,
    "h</w>": 855,
    "public</w>": 856,
    "opé": 857,
    "pen": 858,
    "ission</w>": 859,
    "hu": 860,
    "bl": 861,
    "mati": 862,
    "procédure</w>": 863,
    "ique</w>": 864,
    "bien</w>": 865,
    "international</w>": 866,
    "ya": 867,
    "fond": 868,
    "che": 869,
    "fr": 870,
    "oc": 871,
    "diff": 872,
    "teurs</w>": 873,
    "20</w>": 874,
    "anti": 875,
    "euro": 876,
    "politique</w>": 877,
    "compé": 878,
    "lui</w>": 879,
    "enta": 880,
    "pay": 881,
    "cho": 882,
    "san": 883,
    "logi": 884,
    "aussi</w>": 885,
    "rale</w>": 886,
    "conven": 887,
    "fu": 888,
    "cha": 889,
    "?</w>": 890,
    "°</w>": 891,
    "lon": 892,
    "mise</w>": 893,
    "leurs</w>": 894,
    "pô": 895,
    "tent</w>": 896,
    "fai": 897,
    "ux</w>": 898,
    "com</w>": 899,
    "alement</w>": 900,
    "tence</w>": 901,
    "fes": 902,
    "16": 903,
    "contre</w>": 904,
    "fis": 905,
    "mesu": 906,
    "ban": 907,
    "ors</w>": 908,
    "commun": 909,
    "our": 910,
    "para": 911,
    "march": 912,
    "11</w>": 913,
    "exécu": 914,
    "tex": 915,
    "conom": 916,
    "ger</w>": 917,
    "téri": 918,
    "mis</w>": 919,
    "gation</w>": 920,
    "décision</w>": 921,
    "fonci": 922,
    "fication</w>": 923,
    "spé": 924,
    "ôle</w>": 925,
    "eau</w>": 926,
    "conditions</w>": 927,
    "val": 928,
    "péri": 929,
    "ines</w>": 930,
    "ù</w>": 931,
    "port</w>": 932,
    "ments</w>": 933,
    "an</w>": 934,
    "%</w>": 935,
    "où</w>": 936,
    "sor": 937,
    "bé": 938,
    "principe</w>": 939,
    "afri": 940,
    "cité</w>": 941,
    "titre</w>": 942,
    "cul": 943,
    "moins</w>": 944,
    "pouvoir</w>": 945,
    "trib": 946,
    "application</w>": 947,
    "concer": 948,
    "effet</w>": 949,
    "tin": 950,
    "née</w>": 951,
    "ets</w>": 952,
    "éri": 953,
    "s_": 954,
    "consi": 955,
    "justice</w>": 956,
    "contr": 957,
    "lar": 958,
    "partie</w>": 959,
    "avoir</w>": 960,
    "st": 961,
    "rait</w>": 962,
    "the</w>": 963,
    "w</w>": 964,
    "défin": 965,
    "exis": 966,
    "prési": 967,
    "forme</w>": 968,
    "tribun": 969,
    "propri": 970,
    "12</w>": 971,
    "dispositions</w>": 972,
    "action</w>": 973,
    "peuvent</w>": 974,
    "dit</w>": 975,
    "personne</w>": 976,
    "oun": 977,
    "cau": 978,
    "der</w>": 979,
    "donc</w>": 980,
    "lec": 981,
    "acte</w>": 982,
    "centre</w>": 983,
    "21</w>": 984,
    "économ": 985,
    "conna": 986,
    "alis": 987,
    "ail</w>": 988,
    "sel": 989,
    "int</w>": 990,
    "19</w>": 991,
    "ra</w>": 992,
    "toute</w>": 993,
    "sig": 994,
    "sub": 995,
    "ill": 996,
    "direc": 997,
    "tous</w>": 998,
    "donn": 999,
    "mani": 1000,
    "accor": 1001,
    "ss</w>": 1002,
    "enne</w>": 1003,
    "ances</w>": 1004,
    "limi": 1005,
    "autori": 1006,
    "pari": 1007,
    "part</w>": 1008,
    "celu": 1009,
    "bre</w>": 1010,
    "après</w>": 1011,
    "particu": 1012,
    "15</w>": 1013,
    "and</w>": 1014,
    "us</w>": 1015,
    "était</w>": 1016,
    "13</w>": 1017,
    "pose</w>": 1018,
    "selon</w>": 1019,
    "nota": 1020,
    "général</w>": 1021,
    "cara": 1022,
    "ass": 1023,
    "etat</w>": 1024,
    "activi": 1025,
    "endant</w>": 1026,
    "institu": 1027,
    "spéci": 1028,
    "coll": 1029,
    "lem": 1030,
    "fran</w>": 1031,
    "juridique</w>": 1032,
    "dence</w>": 1033,
    "exemp": 1034,
    "assur": 1035,
    "œu": 1036,
    "gran": 1037,
    "néces": 1038,
    "position</w>": 1039,
    "23</w>": 1040,
    "hom": 1041,
    "nous</w>": 1042,
    "impô": 1043,
    "ré</w>": 1044,
    "rég": 1045,
    "lités</w>": 1046,
    "rais": 1047,
    "nor": 1048,
    "fisca": 1049,
    "vel": 1050,
    "toire</w>": 1051,
    "ctionn": 1052,
    "matière</w>": 1053,
    "ha": 1054,
    "lution</w>": 1055,
    "particuli": 1056,
    "termin": 1057,
    "sem": 1058,
    "ssi": 1059,
    "informa": 1060,
    "197": 1061,
    "issance</w>": 1062,
    "lieu</w>": 1063,
    "ations</w>": 1064,
    "compte</w>": 1065,
    "cen": 1066,
    "25</w>": 1067,
    "cher": 1068,
    "personnes</w>": 1069,
    "légis": 1070,
    "déla": 1071,
    "lorsque</w>": 1072,
    "22</w>": 1073,
    "88": 1074,
    "responsabilité</w>": 1075,
    "pai": 1076,
    "moy": 1077,
    "[</w>": 1078,
    "judici": 1079,
    "velop": 1080,
    "tance</w>": 1081,
    "pes</w>": 1082,
    "gé</w>": 1083,
    "considé": 1084,
    "26</w>": 1085,
    "objet</w>": 1086,
    "parties</w>": 1087,
    "collec": 1088,
    "art</w>": 1089,
    "des": 1090,
    "exi": 1091,
    "règles</w>": 1092,
    "situ": 1093,
    "14</w>": 1094,
    "gouver": 1095,
    "mment</w>": 1096,
    "nature</w>": 1097,
    "rer</w>": 1098,
    "endre</w>": 1099,
    "profes": 1100,
    "lit": 1101,
    "constitutionn": 1102,
    "pra": 1103,
    "of</w>": 1104,
    "ellement</w>": 1105,
    "paris</w>": 1106,
    "agi": 1107,
    "également</w>": 1108,
    "sécu": 1109,
    "avait</w>": 1110,
    "enf": 1111,
    "30</w>": 1112,
    "portant</w>": 1113,
    "juris": 1114,
    "yaoun": 1115,
    "grou": 1116,
    "enn": 1117,
    "prés": 1118,
    "gouvern": 1119,
    "éch": 1120,
    "infra": 1121,
    "]</w>": 1122,
    "terri": 1123,
    "conten": 1124,
    "europé": 1125,
    "aient</w>": 1126,
    "faut</w>": 1127,
    "taires</w>": 1128,
    "cs</w>": 1129,
    "alors</w>": 1130,
    "résul": 1131,
    "ll</w>": 1132,
    "lle</w>": 1133,
    "détermin": 1134,
    "rations</w>": 1135,
    "cès</w>": 1136,
    "syst": 1137,
    "bo": 1138,
    "mer": 1139,
    "arbi": 1140,
    "k</w>": 1141,
    "tribunal</w>": 1142,
    "administration</w>": 1143,
    "notamment</w>": 1144,
    "dévelop": 1145,
    "pru": 1146,
    "possi": 1147,
    "ge": 1148,
    "tech": 1149,
    "go": 1150,
    "préc": 1151,
    "car": 1152,
    "ctu": 1153,
    "derni": 1154,
    "sions</w>": 1155,
    "yaounde</w>": 1156,
    "services</w>": 1157,
    "tec": 1158,
    "cet</w>": 1159,
    "rem": 1160,
    "16</w>": 1161,
    "ences</w>": 1162,
    "béné": 1163,
    "core</w>": 1164,
    "note</w>": 1165,
    "demande</w>": 1166,
    "cham": 1167,
    "sionn": 1168,
    "organis": 1169,
    "président</w>": 1170,
    "semble</w>": 1171,
    "lisation</w>": 1172,
    "contrôle</w>": 1173,
    "encore</w>": 1174,
    "fici": 1175,
    "mars</w>": 1176,
    "recours</w>": 1177,
    "jours</w>": 1178,
    "ay": 1179,
    "cont": 1180,
    "18</w>": 1181,
    "déf": 1182,
    "toral</w>": 1183,
    "jan": 1184,
    "non": 1185,
    "can": 1186,
    "priv": 1187,
    "régime</w>": 1188,
    "statu": 1189,
    "eng": 1190,
    "loca": 1191,
    "ploi": 1192,
    "exemple</w>": 1193,
    "premier</w>": 1194,
    "sour": 1195,
    "17</w>": 1196,
    "section</w>": 1197,
    "ret</w>": 1198,
    "alité</w>": 1199,
    "actes</w>": 1200,
    "représen": 1201,
    "ordre</w>": 1202,
    "ch</w>": 1203,
    "quel</w>": 1204,
    "je": 1205,
    "23": 1206,
    "médi": 1207,
    "exécution</w>": 1208,
    "temp": 1209,
    "rence</w>": 1210,
    "cur": 1211,
    "suite</w>": 1212,
    "vers</w>": 1213,
    "garanti": 1214,
    "dev": 1215,
    "étés</w>": 1216,
    "aine</w>": 1217,
    "pays</w>": 1218,
    "gestion</w>": 1219,
    "constitution</w>": 1220,
    "sup": 1221,
    "dée</w>": 1222,
    "ception</w>": 1223,
    "memb": 1224,
    "pement</w>": 1225,
    "juin</w>": 1226,
    "op</w>": 1227,
    "respec": 1228,
    "fix": 1229,
    "exploi": 1230,
    "sus": 1231,
    "décla": 1232,
    "financi": 1233,
    "auc": 1234,
    "puis</w>": 1235,
    "sécurité</w>": 1236,
    "travail</w>": 1237,
    "196": 1238,
    "cer</w>": 1239,
    "denti": 1240,
    "hi": 1241,
    "eure</w>": 1242,
    "france</w>": 1243,
    "temps</w>": 1244,
    "exerci": 1245,
    "communau": 1246,
    "chap": 1247,
    "convention</w>": 1248,
    "cass</w>": 1249,
    "dé</w>": 1250,
    "autor": 1251,
    "ient</w>": 1252,
    "serv": 1253,
    "25": 1254,
    "ala</w>": 1255,
    "délai</w>": 1256,
    "ds</w>": 1257,
    "mettre</w>": 1258,
    "protec": 1259,
    "obligation</w>": 1260,
    "membres</w>": 1261,
    "me": 1262,
    "thé": 1263,
    "littoral</w>": 1264,
    "quelle</w>": 1265,
    "24</w>": 1266,
    "vue</w>": 1267,
    "tées</w>": 1268,
    "tori": 1269,
    "celle</w>": 1270,
    "lée</w>": 1271,
    "cadre</w>": 1272,
    "avant</w>": 1273,
    "rant</w>": 1274,
    "ni</w>": 1275,
    "000</w>": 1276,
    "chapi": 1277,
    "rés</w>": 1278,
    "entreprise</w>": 1279,
    "form": 1280,
    "modi": 1281,
    "associ": 1282,
    "question</w>": 1283,
    "arrêt</w>": 1284,
    "élé": 1285,
    "bliss": 1286,
    "rapport</w>": 1287,
    "celui</w>": 1288,
    "toutes</w>": 1289,
    "jour": 1290,
    "ve": 1291,
    "obs</w>": 1292,
    "devant</w>": 1293,
    "24": 1294,
    "cause</w>": 1295,
    "impor": 1296,
    "met</w>": 1297,
    "vie</w>": 1298,
    "effec": 1299,
    "sociétés</w>": 1300,
    "œuvre</w>": 1301,
    "tis": 1302,
    "ues</w>": 1303,
    "jec": 1304,
    "sim": 1305,
    "république</w>": 1306,
    "cit</w>": 1307,
    "iné": 1308,
    "reven": 1309,
    "jurispru": 1310,
    "nécess": 1311,
    "aill": 1312,
    "texte</w>": 1313,
    "liber": 1314,
    "gement</w>": 1315,
    "chapitre</w>": 1316,
    "ini": 1317,
    "pris</w>": 1318,
    "doi": 1319,
    "je</w>": 1320,
    "sau": 1321,
    "législa": 1322,
    "ur": 1323,
    "erce</w>": 1324,
    "lors</w>": 1325,
    "dép": 1326,
    "sens</w>": 1327,
    "bull</w>": 1328,
    "dire</w>": 1329,
    "tiers</w>": 1330,
    "fév": 1331,
    "douala</w>": 1332,
    "autorité</w>": 1333,
    "31</w>": 1334,
    "protection</w>": 1335,
    "service</w>": 1336,
    "inv": 1337,
    "recher": 1338,
    "étu": 1339,
    "29</w>": 1340,
    "conf": 1341,
    "exercice</w>": 1342,
    "judiciaire</w>": 1343,
    "thè": 1344,
    "élec": 1345,
    "ante</w>": 1346,
    "commission</w>": 1347,
    "règlement</w>": 1348,
    "jo": 1349,
    "table</w>": 1350,
    "quer</w>": 1351,
    "déli": 1352,
    "27</w>": 1353,
    "onnement</w>": 1354,
    "états</w>": 1355,
    "défini": 1356,
    "quel": 1357,
    "vir": 1358,
    "tations</w>": 1359,
    "!</w>": 1360,
    "arbitra": 1361,
    "ayant</w>": 1362,
    "annu": 1363,
    "généra": 1364,
    "articles</w>": 1365,
    "ler</w>": 1366,
    "indivi": 1367,
    "lla": 1368,
    "ître</w>": 1369,
    "00</w>": 1370,
    "gard</w>": 1371,
    "préci": 1372,
    "or</w>": 1373,
    "intérêt</w>": 1374,
    "28</w>": 1375,
    "vers": 1376,
    "__": 1377,
    "techni": 1378,
    "quê": 1379,
    "ul": 1380,
    "sus</w>": 1381,
    "rel": 1382,
    "rêts</w>": 1383,
    "vient</w>": 1384,
    "caract": 1385,
    "its</w>": 1386,
    "contribu": 1387,
    "vio": 1388,
    "applica": 1389,
    "anal": 1390,
    "équi": 1391,
    "isme</w>": 1392,
    "isions</w>": 1393,
    "établiss": 1394,
    "som": 1395,
    "les": 1396,
    "ril</w>": 1397,
    "politiques</w>": 1398,
    "sieurs</w>": 1399,
    "rent</w>": 1400,
    "vé": 1401,
    "pénale</w>": 1402,
    "certains</w>": 1403,
    "établi": 1404,
    "gne</w>": 1405,
    "26": 1406,
    "q</w>": 1407,
    "ption</w>": 1408,
    "très</w>": 1409,
    "organisation</w>": 1410,
    "gations</w>": 1411,
    "avril</w>": 1412,
    "hy": 1413,
    "mili": 1414,
    "décembre</w>": 1415,
    "mai</w>": 1416,
    "vis</w>": 1417,
    "engag": 1418,
    "compétence</w>": 1419,
    "mobi": 1420,
    "illet</w>": 1421,
    "cir": 1422,
    "i_": 1423,
    "lè": 1424,
    "29": 1425,
    "exclu": 1426,
    "jurisprudence</w>": 1427,
    "docu": 1428,
    "équ": 1429,
    "fa</w>": 1430,
    "valeur</w>": 1431,
    "décret</w>": 1432,
    "quement</w>": 1433,
    "commerci": 1434,
    "fer": 1435,
    "tenir</w>": 1436,
    "doivent</w>": 1437,
    "union</w>": 1438,
    "ffici": 1439,
    "clau": 1440,
    "27": 1441,
    "plusieurs</w>": 1442,
    "pp</w>": 1443,
    "biens</w>": 1444,
    "juillet</w>": 1445,
    "fonctionn": 1446,
    "contrats</w>": 1447,
    "prim": 1448,
    "ing</w>": 1449,
    "cra": 1450,
    "envir": 1451,
    "mesure</w>": 1452,
    "agit</w>": 1453,
    "différ": 1454,
    "vous</w>": 1455,
    "système</w>": 1456,
    "afrique</w>": 1457,
    "homme</w>": 1458,
    "sage</w>": 1459,
    "chaque</w>": 1460,
    "nés</w>": 1461,
    "sité</w>": 1462,
    "vier</w>": 1463,
    "utilis": 1464,
    "sera</w>": 1465,
    "professionn": 1466,
    "laire</w>": 1467,
    "développement</w>": 1468,
    "ensemble</w>": 1469,
    "lois</w>": 1470,
    "pren": 1471,
    "ailleurs</w>": 1472,
    "principa": 1473,
    "28": 1474,
    "sci": 1475,
    "caractère</w>": 1476,
    "pénal</w>": 1477,
    "cti": 1478,
    "régu": 1479,
    "activité</w>": 1480,
    "distin": 1481,
    "domaine</w>": 1482,
    "mission</w>": 1483,
    "ministre</w>": 1484,
    "2011</w>": 1485,
    "mesures</w>": 1486,
    "prom": 1487,
    "éren": 1488,
    "trois</w>": 1489,
    "raison</w>": 1490,
    "analy": 1491,
    "rier</w>": 1492,
    "able</w>": 1493,
    "assu": 1494,
    "da</w>": 1495,
    "conséqu": 1496,
    "suiv": 1497,
    "nationale</w>": 1498,
    "première</w>": 1499,
    "date</w>": 1500,
    "investi": 1501,
    "solution</w>": 1502,
    "point</w>": 1503,
    "prendre</w>": 1504,
    "cement</w>": 1505,
    "habi": 1506,
    "condu": 1507,
    "ple</w>": 1508,
    "ls</w>": 1509,
    "inte</w>": 1510,
    "étran": 1511,
    "tère</w>": 1512,
    "\"</w>": 1513,
    "civil</w>": 1514,
    "fonction</w>": 1515,
    "partici": 1516,
    "données</w>": 1517,
    "confor": 1518,
    "tenu</w>": 1519,
    "laquelle</w>": 1520,
    "lorsqu</w>": 1521,
    "puis": 1522,
    "générale</w>": 1523,
    "crimin": 1524,
    "sep": 1525,
    "meu": 1526,
    "dès</w>": 1527,
    "pita": 1528,
    "loy": 1529,
    "nation</w>": 1530,
    "sources</w>": 1531,
    "prise</w>": 1532,
    "confli": 1533,
    "chi": 1534,
    "per</w>": 1535,
    "marché</w>": 1536,
    "camer": 1537,
    "gue</w>": 1538,
    "off": 1539,
    "dant</w>": 1540,
    "fac": 1541,
    "preu": 1542,
    "est_": 1543,
    "écri": 1544,
    "tax": 1545,
    "plan</w>": 1546,
    "répon": 1547,
    "senti": 1548,
    "consta": 1549,
    "situation</w>": 1550,
    "paiement</w>": 1551,
    "ser</w>": 1552,
    "publics</w>": 1553,
    "entreprises</w>": 1554,
    "gouvernement</w>": 1555,
    "pass": 1556,
    "sociale</w>": 1557,
    "objec": 1558,
    "propriété</w>": 1559,
    "tants</w>": 1560,
    "car</w>": 1561,
    "xi": 1562,
    "sé</w>": 1563,
    "at</w>": 1564,
    "ref": 1565,
    "fier</w>": 1566,
    "chan": 1567,
    "civile</w>": 1568,
    "oires</w>": 1569,
    "acqu": 1570,
    "volon": 1571,
    "ir": 1572,
    "cle</w>": 1573,
    "impôt</w>": 1574,
    "interven": 1575,
    "économique</w>": 1576,
    "depuis</w>": 1577,
    "fir": 1578,
    "affaires</w>": 1579,
    "tage</w>": 1580,
    "conclu": 1581,
    "affaire</w>": 1582,
    "1er</w>": 1583,
    "stri": 1584,
    "195": 1585,
    "gence</w>": 1586,
    "évo": 1587,
    "orig": 1588,
    "auteur</w>": 1589,
    "pel": 1590,
    "bénéfici": 1591,
    "rece": 1592,
    "lég": 1593,
    "as</w>": 1594,
    "alisation</w>": 1595,
    "commerce</w>": 1596,
    "erre</w>": 1597,
    "atten": 1598,
    "000": 1599,
    "lli": 1600,
    "lemen": 1601,
    "to</w>": 1602,
    "ceux</w>": 1603,
    "2010</w>": 1604,
    "fica": 1605,
    "2006</w>": 1606,
    "place</w>": 1607,
    "certaines</w>": 1608,
    "obligations</w>": 1609,
    "cependant</w>": 1610,
    "présent</w>": 1611,
    "iii</w>": 1612,
    "abs": 1613,
    "dg": 1614,
    "actions</w>": 1615,
    "réfé": 1616,
    "janvier</w>": 1617,
    "ho": 1618,
    "ît</w>": 1619,
    "nom</w>": 1620,
    "ode</w>": 1621,
    "dam": 1622,
    "tefois</w>": 1623,
    "individu": 1624,
    "bou": 1625,
    "communi": 1626,
    "amé": 1627,
    "mari": 1628,
    "juridiction</w>": 1629,
    "prix</w>": 1630,
    "toutefois</w>": 1631,
    "ût</w>": 1632,
    "manière</w>": 1633,
    "attribu": 1634,
    "mois</w>": 1635,
    "duction</w>": 1636,
    "maj": 1637,
    "montant</w>": 1638,
    "cé</w>": 1639,
    "2014</w>": 1640,
    "légi": 1641,
    "intérêts</w>": 1642,
    "ty": 1643,
    "ité</w>": 1644,
    "constru": 1645,
    "cour": 1646,
    "africa": 1647,
    "ber": 1648,
    "four": 1649,
    "2016</w>": 1650,
    "ign": 1651,
    "logie</w>": 1652,
    "2012</w>": 1653,
    "ves</w>": 1654,
    "2005</w>": 1655,
    "ord": 1656,
    "exploitation</w>": 1657,
    "siè": 1658,
    "prê": 1659,
    "avan": 1660,
    "souvent</w>": 1661,
    "ali": 1662,
    "étaire</w>": 1663,
    "orie</w>": 1664,
    "arrê": 1665,
    "pression</w>": 1666,
    "rou": 1667,
    "30": 1668,
    "pas": 1669,
    "avis</w>": 1670,
    "his": 1671,
    "atte": 1672,
    "opérations</w>": 1673,
    "regis": 1674,
    "information</w>": 1675,
    "liberté</w>": 1676,
    "2007</w>": 1677,
    "social</w>": 1678,
    "2013</w>": 1679,
    "débi": 1680,
    "aliné": 1681,
    "concern": 1682,
    "tel</w>": 1683,
    "ente</w>": 1684,
    "34": 1685,
    "quant</w>": 1686,
    "compéten": 1687,
    "porte</w>": 1688,
    "iques</w>": 1689,
    "connaissance</w>": 1690,
    "entra": 1691,
    "voirs</w>": 1692,
    "évi": 1693,
    "capita": 1694,
    "poser</w>": 1695,
    "exer": 1696,
    "principes</w>": 1697,
    "domma": 1698,
    "vision</w>": 1699,
    "valu": 1700,
    "juridiques</w>": 1701,
    "2004</w>": 1702,
    "dépend": 1703,
    "cro": 1704,
    "fonds</w>": 1705,
    "age</w>": 1706,
    "seulement</w>": 1707,
    "rc</w>": 1708,
    "véri": 1709,
    "esse</w>": 1710,
    "européenne</w>": 1711,
    "national</w>": 1712,
    "différen": 1713,
    "règle</w>": 1714,
    "textes</w>": 1715,
    "réalis": 1716,
    "décisions</w>": 1717,
    "nombre</w>": 1718,
    "preuve</w>": 1719,
    "2008</w>": 1720,
    "50</w>": 1721,
    "démo": 1722,
    "compa": 1723,
    "tota": 1724,
    "2015</w>": 1725,
    "nov": 1726,
    "ref_": 1727,
    "projet</w>": 1728,
    "défen": 1729,
    "antes</w>": 1730,
    "chef</w>": 1731,
    "impôts</w>": 1732,
    "libé": 1733,
    "charge</w>": 1734,
    "stra": 1735,
    "issant</w>": 1736,
    "base</w>": 1737,
    "éléments</w>": 1738,
    "assemb": 1739,
    "enten": 1740,
    "cela</w>": 1741,
    "rev": 1742,
    "tur": 1743,
    "main": 1744,
    "be": 1745,
    "mer</w>": 1746,
    "agri": 1747,
    "th</w>": 1748,
    "matéri": 1749,
    "galité</w>": 1750,
    "vente</w>": 1751,
    "cp</w>": 1752,
    "2009</w>": 1753,
    "accord</w>": 1754,
    "foncière</w>": 1755,
    "cli": 1756,
    "indu": 1757,
    "telle</w>": 1758,
    "fav": 1759,
    "39": 1760,
    "février</w>": 1761,
    "isant</w>": 1762,
    "déclaration</w>": 1763,
    "tien</w>": 1764,
    "recherche</w>": 1765,
    "identi": 1766,
    "56": 1767,
    "mé</w>": 1768,
    "mation</w>": 1769,
    "go</w>": 1770,
    "toujours</w>": 1771,
    "ta</w>": 1772,
    "quête</w>": 1773,
    "ches</w>": 1774,
    "produits</w>": 1775,
    "jour</w>": 1776,
    "ports</w>": 1777,
    "fin</w>": 1778,
    "voie</w>": 1779,
    "publiques</w>": 1780,
    "consom": 1781,
    "pron": 1782,
    "trou": 1783,
    "à_": 1784,
    "qué</w>": 1785,
    "cher</w>": 1786,
    "lé</w>": 1787,
    "rées</w>": 1788,
    "tances</w>": 1789,
    "lier</w>": 1790,
    "durée</w>": 1791,
    "égard</w>": 1792,
    "concur": 1793,
    "consul": 1794,
    "peine</w>": 1795,
    "one</w>": 1796,
    "oi</w>": 1797,
    "2000</w>": 1798,
    "ma</w>": 1799,
    "celles</w>": 1800,
    "commun</w>": 1801,
    "condam": 1802,
    "mini": 1803,
    "qualité</w>": 1804,
    "étant</w>": 1805,
    "capa": 1806,
    "ques": 1807,
    "peu</w>": 1808,
    "tég": 1809,
    "rales</w>": 1810,
    "alinéa</w>": 1811,
    "moyens</w>": 1812,
    "ste</w>": 1813,
    "investiss": 1814,
    "desti": 1815,
    "expli": 1816,
    "centra": 1817,
    "chambre</w>": 1818,
    "quali": 1819,
    "rage</w>": 1820,
    "due</w>": 1821,
    "rési": 1822,
    "saisi": 1823,
    "thèse</w>": 1824,
    "activités</w>": 1825,
    "iste</w>": 1826,
    "tivement</w>": 1827,
    "opération</w>": 1828,
    "essenti": 1829,
    "33</w>": 1830,
    "notion</w>": 1831,
    "permet</w>": 1832,
    "45</w>": 1833,
    "insta": 1834,
    "36": 1835,
    "tention</w>": 1836,
    "mêmes</w>": 1837,
    "doc": 1838,
    "résulta": 1839,
    "tu</w>": 1840,
    "univer": 1841,
    "lev": 1842,
    "41</w>": 1843,
    "stru": 1844,
    "cription</w>": 1845,
    "ps</w>": 1846,
    "but</w>": 1847,
    "accu": 1848,
    "possible</w>": 1849,
    "subs": 1850,
    "2003</w>": 1851,
    "sous_": 1852,
    "comman": 1853,
    "2001</w>": 1854,
    "groupe</w>": 1855,
    "86": 1856,
    "ang": 1857,
    "2002</w>": 1858,
    "br": 1859,
    "be</w>": 1860,
    "ex</w>": 1861,
    "ala": 1862,
    "pratique</w>": 1863,
    "constitutionnel</w>": 1864,
    "cession</w>": 1865,
    "refu": 1866,
    "collectivi": 1867,
    "faute</w>": 1868,
    "inf": 1869,
    "budg": 1870,
    "cée</w>": 1871,
    "travaux</w>": 1872,
    "sala": 1873,
    "pouvoirs</w>": 1874,
    "initi": 1875,
    "territori": 1876,
    "mom": 1877,
    "ctement</w>": 1878,
    "trouv": 1879,
    "adop": 1880,
    "cf</w>": 1881,
    "appro": 1882,
    "démocra": 1883,
    "permet": 1884,
    "èmes</w>": 1885,
    "internationale</w>": 1886,
    "ennent</w>": 1887,
    "pronon": 1888,
    "environnement</w>": 1889,
    "posé</w>": 1890,
    "issent</w>": 1891,
    "37": 1892,
    "faits</w>": 1893,
    "35</w>": 1894,
    "victi": 1895,
    "secon": 1896,
    "procédures</w>": 1897,
    "traité</w>": 1898,
    "intro": 1899,
    "ke": 1900,
    "administratif</w>": 1901,
    "affec": 1902,
    "pation</w>": 1903,
    "sign": 1904,
    "nes</w>": 1905,
    "jusqu</w>": 1906,
    "aise</w>": 1907,
    "relative</w>": 1908,
    "soi": 1909,
    "sement</w>": 1910,
    "usage</w>": 1911,
    "cè": 1912,
    "lu</w>": 1913,
    "34</w>": 1914,
    "paration</w>": 1915,
    "conser": 1916,
    "euse</w>": 1917,
    "disposition</w>": 1918,
    "terme</w>": 1919,
    "aucune</w>": 1920,
    "graph": 1921,
    "ministère</w>": 1922,
    "bes": 1923,
    "ables</w>": 1924,
    "phy": 1925,
    "débiteur</w>": 1926,
    "manda": 1927,
    "40</w>": 1928,
    "édi": 1929,
    "bor": 1930,
    "camerou": 1931,
    "hypo": 1932,
    "gée</w>": 1933,
    "indem": 1934,
    "popu": 1935,
    "pendant</w>": 1936,
    "donner</w>": 1937,
    "taux</w>": 1938,
    "57": 1939,
    "jcp</w>": 1940,
    "finances</w>": 1941,
    "mul": 1942,
    "créanci": 1943,
    "vement</w>": 1944,
    "moda": 1945,
    "termes</w>": 1946,
    "40": 1947,
    "nouvelle</w>": 1948,
    "existence</w>": 1949,
    "statut</w>": 1950,
    "nouveau</w>": 1951,
    "ressources</w>": 1952,
    "moyen</w>": 1953,
    "déj": 1954,
    "del": 1955,
    "suff": 1956,
    "territoire</w>": 1957,
    "formation</w>": 1958,
    "gen": 1959,
    "vu</w>": 1960,
    "oct": 1961,
    "respect</w>": 1962,
    "requ": 1963,
    "commune</w>": 1964,
    "octob": 1965,
    "né</w>": 1966,
    "déjà</w>": 1967,
    "logique</w>": 1968,
    "gat": 1969,
    "tie</w>": 1970,
    "tar": 1971,
    "chose</w>": 1972,
    "physi": 1973,
    "onna": 1974,
    "um</w>": 1975,
    "dernier</w>": 1976,
    "interpré": 1977,
    "réglemen": 1978,
    "production</w>": 1979,
    "précis": 1980,
    "ct</w>": 1981,
    "intéres": 1982,
    "èrement</w>": 1983,
    "fié</w>": 1984,
    "sais": 1985,
    "hé": 1986,
    "assemblée</w>": 1987,
    "sti": 1988,
    "offici": 1989,
    "32</w>": 1990,
    "effets</w>": 1991,
    "constitue</w>": 1992,
    "crédit</w>": 1993,
    "octobre</w>": 1994,
    "conn": 1995,
    "garantie</w>": 1996,
    "traitement</w>": 1997,
    "seul</w>": 1998,
    "quelles</w>": 1999,
    "accep": 2000,
    "abor": 2001,
    "condition</w>": 2002,
    "année</w>": 2003,
    "gh": 2004,
    "présente</w>": 2005,
    "lant</w>": 2006,
    "déci": 2007,
    "existe</w>": 2008,
    "liti": 2009,
    "isse</w>": 2010,
    "tient</w>": 2011,
    "afin</w>": 2012,
    "iv</w>": 2013,
    "èle</w>": 2014,
    "libre</w>": 2015,
    "contenti": 2016,
    "ca</w>": 2017,
    "bru": 2018,
    "ac</w>": 2019,
    "veau</w>": 2020,
    "foncier</w>": 2021,
    "dépen": 2022,
    "analyse</w>": 2023,
    "gram": 2024,
    "ne": 2025,
    "assurance</w>": 2026,
    "contractu": 2027,
    "années</w>": 2028,
    "constitutionnelle</w>": 2029,
    "ordin": 2030,
    "établissement</w>": 2031,
    "porter</w>": 2032,
    "35": 2033,
    "défense</w>": 2034,
    "profi": 2035,
    "cin": 2036,
    "effectu": 2037,
    "rôle</w>": 2038,
    "conc": 2039,
    "immeu": 2040,
    "occu": 2041,
    "patri": 2042,
    "38": 2043,
    "ti</w>": 2044,
    "impli": 2045,
    "beso": 2046,
    "moment</w>": 2047,
    "lequel</w>": 2048,
    "particulier</w>": 2049,
    "administrative</w>": 2050,
    "procès</w>": 2051,
    "serait</w>": 2052,
    "catég": 2053,
    "cepti": 2054,
    "probl": 2055,
    "marchés</w>": 2056,
    "tel": 2057,
    "39</w>": 2058,
    "fem": 2059,
    "prévues</w>": 2060,
    "fiscale</w>": 2061,
    "instance</w>": 2062,
    "ao": 2063,
    "fami": 2064,
    "arbitrage</w>": 2065,
    "2017</w>": 2066,
    "juridictions</w>": 2067,
    "espa": 2068,
    "sin": 2069,
    "absence</w>": 2070,
    "mément</w>": 2071,
    "36</w>": 2072,
    "privé</w>": 2073,
    "diver": 2074,
    "tionnelle</w>": 2075,
    "circons": 2076,
    "industri": 2077,
    "solu": 2078,
    "comptes</w>": 2079,
    "jets</w>": 2080,
    "modalités</w>": 2081,
    "terres</w>": 2082,
    "va</w>": 2083,
    "contes": 2084,
    "exception</w>": 2085,
    "risque</w>": 2086,
    "assurer</w>": 2087,
    "gueur</w>": 2088,
    "clause</w>": 2089,
    "région": 2090,
    "formu": 2091,
    "deur</w>": 2092,
    "etc</w>": 2093,
    "amenta": 2094,
    "appréci": 2095,
    "carac": 2096,
    "49": 2097,
    "37</w>": 2098,
    "suc": 2099,
    "enc": 2100,
    "guerre</w>": 2101,
    "fondamenta": 2102,
    "prend</w>": 2103,
    "instru": 2104,
    "force</w>": 2105,
    "mi</w>": 2106,
    "arrêté</w>": 2107,
    "empr": 2108,
    "contraire</w>": 2109,
    "infraction</w>": 2110,
    "dr</w>": 2111,
    "novembre</w>": 2112,
    "1998</w>": 2113,
    "euses</w>": 2114,
    "appar": 2115,
    "audi": 2116,
    "42</w>": 2117,
    "caracté": 2118,
    "autorisation</w>": 2119,
    "formes</w>": 2120,
    "à_dire</w>": 2121,
    "atta": 2122,
    "conformément</w>": 2123,
    "ite</w>": 2124,
    "éd</w>": 2125,
    "aucun</w>": 2126,
    "mis": 2127,
    "méth": 2128,
    "2018</w>": 2129,
    "celle_": 2130,
    "relatives</w>": 2131,
    "là</w>": 2132,
    "chac": 2133,
    "diri": 2134,
    "pre</w>": 2135,
    "48</w>": 2136,
    "quels</w>": 2137,
    "voy": 2138,
    "niveau</w>": 2139,
    "cole</w>": 2140,
    "légiti": 2141,
    "recou": 2142,
    "td</w>": 2143,
    "cameroun</w>": 2144,
    "ez</w>": 2145,
    "étrang": 2146,
    "grande</w>": 2147,
    "caux</w>": 2148,
    "chargé</w>": 2149,
    "suscepti": 2150,
    "har": 2151,
    "rele": 2152,
    "indépend": 2153,
    "dation</w>": 2154,
    "ani": 2155,
    "rom": 2156,
    "actu": 2157,
    "dres": 2158,
    "scho": 2159,
    "celle_ci</w>": 2160,
    "nécessaire</w>": 2161,
    "accès</w>": 2162,
    "immobi": 2163,
    "numé": 2164,
    "oix</w>": 2165,
    "supéri": 2166,
    "institutions</w>": 2167,
    "fie</w>": 2168,
    "rec</w>": 2169,
    "août</w>": 2170,
    "46": 2171,
    "38</w>": 2172,
    "concerne</w>": 2173,
    "poursui": 2174,
    "celui_": 2175,
    "période</w>": 2176,
    "mor": 2177,
    "aména": 2178,
    "préala": 2179,
    "défaut</w>": 2180,
    "huma": 2181,
    "vin": 2182,
    "dica": 2183,
    "enfin</w>": 2184,
    "blement</w>": 2185,
    "sein</w>": 2186,
    "oh": 2187,
    "quand</w>": 2188,
    "sée</w>": 2189,
    "mention": 2190,
    "lou": 2191,
    "informations</w>": 2192,
    "0000": 2193,
    "police</w>": 2194,
    "sept": 2195,
    "ôt</w>": 2196,
    "cô": 2197,
    "sauf</w>": 2198,
    "rir</w>": 2199,
    "gré</w>": 2200,
    "donné</w>": 2201,
    "celui_ci</w>": 2202,
    "den": 2203,
    "1999</w>": 2204,
    "direction</w>": 2205,
    "syn": 2206,
    "1996</w>": 2207,
    "dispose</w>": 2208,
    "volonté</w>": 2209,
    "43</w>": 2210,
    "permis</w>": 2211,
    "banque</w>": 2212,
    "49</w>": 2213,
    "rable</w>": 2214,
    "program": 2215,
    "orité</w>": 2216,
    "est_à_dire</w>": 2217,
    "évalu": 2218,
    "ille</w>": 2219,
    "spécifi": 2220,
    "norma": 2221,
    "pè": 2222,
    "conflits</w>": 2223,
    "fond</w>": 2224,
    "44</w>": 2225,
    "autorités</w>": 2226,
    "autant</w>": 2227,
    "contentieux</w>": 2228,
    "fonctions</w>": 2229,
    "création</w>": 2230,
    "étude</w>": 2231,
    "vox</w>": 2232,
    "tures</w>": 2233,
    "septembre</w>": 2234,
    "juges</w>": 2235,
    "vol</w>": 2236,
    "lations</w>": 2237,
    "dossi": 2238,
    "e_": 2239,
    "préven": 2240,
    "eaux</w>": 2241,
    "outre</w>": 2242,
    "proces": 2243,
    "larvox</w>": 2244,
    "tes": 2245,
    "fonctionnement</w>": 2246,
    "concurrence</w>": 2247,
    "let": 2248,
    "scholarvox</w>": 2249,
    "directement</w>": 2250,
    "relations</w>": 2251,
    "nul": 2252,
    "tionnel</w>": 2253,
    "tour</w>": 2254,
    "partir</w>": 2255,
    "possibilité</w>": 2256,
    "sû": 2257,
    "tionna": 2258,
    "questions</w>": 2259,
    "choix</w>": 2260,
    "vali": 2261,
    "conserv": 2262,
    "cal": 2263,
    "hors</w>": 2264,
    "signi": 2265,
    "enregis": 2266,
    "monde</w>": 2267,
    "salari": 2268,
    "hui</w>": 2269,
    "technique</w>": 2270,
    "ww": 2271,
    "vari": 2272,
    "ateur</w>": 2273,
    "80": 2274,
    "doctr": 2275,
    "pau": 2276,
    "hau": 2277,
    "déc</w>": 2278,
    "soumis</w>": 2279,
    "définition</w>": 2280,
    "reste</w>": 2281,
    "tem": 2282,
    "trement</w>": 2283,
    "ed</w>": 2284,
    "gent</w>": 2285,
    "mod": 2286,
    "bénéfi": 2287,
    "liste</w>": 2288,
    "sation</w>": 2289,
    "tenue</w>": 2290,
    "terre</w>": 2291,
    "sive</w>": 2292,
    "personnel</w>": 2293,
    "fiée</w>": 2294,
    "socio": 2295,
    "47": 2296,
    "46</w>": 2297,
    "appara": 2298,
    "correspon": 2299,
    "li</w>": 2300,
    "jourd</w>": 2301,
    "étaient</w>": 2302,
    "tre": 2303,
    "décou": 2304,
    "directive</w>": 2305,
    "ici</w>": 2306,
    "exper": 2307,
    "observ": 2308,
    "ajou": 2309,
    "quelques</w>": 2310,
    "trouve</w>": 2311,
    "aujourd</w>": 2312,
    "ci_": 2313,
    "1re</w>": 2314,
    "pu</w>": 2315,
    "raient</w>": 2316,
    "abord</w>": 2317,
    "exe</w>": 2318,
    "contrac": 2319,
    "compl": 2320,
    "parce</w>": 2321,
    "52</w>": 2322,
    "bri": 2323,
    "tôt</w>": 2324,
    "face</w>": 2325,
    "47</w>": 2326,
    "épou": 2327,
    "tradi": 2328,
    "acteurs</w>": 2329,
    "seule</w>": 2330,
    "paix</w>": 2331,
    "manifes": 2332,
    "autoris": 2333,
    "toy": 2334,
    "pratiques</w>": 2335,
    "savoir</w>": 2336,
    "simple</w>": 2337,
    "mal": 2338,
    "coutu": 2339,
    "lais</w>": 2340,
    "journa": 2341,
    "quée</w>": 2342,
    "vigueur</w>": 2343,
    "seign": 2344,
    "employ": 2345,
    "origine</w>": 2346,
    "nations</w>": 2347,
    "pouv": 2348,
    "complé": 2349,
    "serve</w>": 2350,
    "révo": 2351,
    "membre</w>": 2352,
    "législateur</w>": 2353,
    "éla": 2354,
    "livre</w>": 2355,
    "parfois</w>": 2356,
    "précé": 2357,
    "onom": 2358,
    "etats</w>": 2359,
    "phi": 2360,
    "préjudi": 2361,
    "internationales</w>": 2362,
    "cite</w>": 2363,
    "50": 2364,
    "noti": 2365,
    "effi": 2366,
    "51</w>": 2367,
    "1997</w>": 2368,
    "nité</w>": 2369,
    "collectivités</w>": 2370,
    "____": 2371,
    "nombr": 2372,
    "produit</w>": 2373,
    "mécan": 2374,
    "cili": 2375,
    "aurait</w>": 2376,
    "pos</w>": 2377,
    "multi": 2378,
    "bar": 2379,
    "propr": 2380,
    "famille</w>": 2381,
    "techniques</w>": 2382,
    "ibi": 2383,
    "intég": 2384,
    "diffi": 2385,
    "effica": 2386,
    "cent</w>": 2387,
    "difficul": 2388,
    "terra": 2389,
    "mises</w>": 2390,
    "désig": 2391,
    "morale</w>": 2392,
    "citoy": 2393,
    "conti": 2394,
    "48": 2395,
    "non_": 2396,
    "err": 2397,
    "2020</w>": 2398,
    "intel": 2399,
    "souver": 2400,
    "concernant</w>": 2401,
    "portée</w>": 2402,
    "ty</w>": 2403,
    "intéri": 2404,
    "ner</w>": 2405,
    "caractéris": 2406,
    "documents</w>": 2407,
    "garde</w>": 2408,
    "réserv": 2409,
    "contre": 2410,
    "suffis": 2411,
    "propre</w>": 2412,
    "soient</w>": 2413,
    "affir": 2414,
    "eures</w>": 2415,
    "issement</w>": 2416,
    "54</w>": 2417,
    "applicables</w>": 2418,
    "oma": 2419,
    "rien</w>": 2420,
    "titres</w>": 2421,
    "cem": 2422,
    "frais</w>": 2423,
    "glo": 2424,
    "peti": 2425,
    "consac": 2426,
    "ann": 2427,
    "sociales</w>": 2428,
    "tante</w>": 2429,
    "assi": 2430,
    "pourrait</w>": 2431,
    "co</w>": 2432,
    "faite</w>": 2433,
    "bon</w>": 2434,
    "irement</w>": 2435,
    "lin": 2436,
    "deven": 2437,
    "applicable</w>": 2438,
    "théorie</w>": 2439,
    "obligat": 2440,
    "excep": 2441,
    "x_": 2442,
    "figu": 2443,
    "era</w>": 2444,
    "ple": 2445,
    "fl": 2446,
    "www</w>": 2447,
    "autonom": 2448,
    "risques</w>": 2449,
    "ht": 2450,
    "nos</w>": 2451,
    "finan": 2452,
    "assis": 2453,
    "ones</w>": 2454,
    "communautaire</w>": 2455,
    "posée</w>": 2456,
    "90</w>": 2457,
    "bel": 2458,
    "abu": 2459,
    "coup</w>": 2460,
    "sable</w>": 2461,
    "mun": 2462,
    "tenant</w>": 2463,
    "vertu</w>": 2464,
    "entraî": 2465,
    "processus</w>": 2466,
    "suivant</w>": 2467,
    "utilisation</w>": 2468,
    "communication</w>": 2469,
    "supr": 2470,
    "connu": 2471,
    "donne</w>": 2472,
    "kech</w>": 2473,
    "ill</w>": 2474,
    "éten": 2475,
    "compter</w>": 2476,
    "rakech</w>": 2477,
    "négo": 2478,
    "1995</w>": 2479,
    "ard</w>": 2480,
    "lien</w>": 2481,
    "victime</w>": 2482,
    "relatif</w>": 2483,
    "1994</w>": 2484,
    "marrakech</w>": 2485,
    "trait</w>": 2486,
    "con</w>": 2487,
    "font</w>": 2488,
    "compris</w>": 2489,
    "plan": 2490,
    "liqui": 2491,
    "différents</w>": 2492,
    "dj": 2493,
    "ibid</w>": 2494,
    "laires</w>": 2495,
    "fourni": 2496,
    "53</w>": 2497,
    "55</w>": 2498,
    "agents</w>": 2499,
    "eur": 2500,
    "mée</w>": 2501,
    "crim</w>": 2502,
    "relè": 2503,
    "196</w>": 2504,
    "1990</w>": 2505,
    "tuelle</w>": 2506,
    "réalité</w>": 2507,
    "tait</w>": 2508,
    "compli": 2509,
    "natur": 2510,
    "compor": 2511,
    "sociaux</w>": 2512,
    "négoci": 2513,
    "janv</w>": 2514,
    "préjudice</w>": 2515,
    "encg</w>": 2516,
    "gés</w>": 2517,
    "communauté</w>": 2518,
    "lance</w>": 2519,
    "1992</w>": 2520,
    "espè": 2521,
    "200</w>": 2522,
    "type</w>": 2523,
    "bonne</w>": 2524,
    "ses": 2525,
    "quoi</w>": 2526,
    "allo": 2527,
    "dité</w>": 2528,
    "fiscal</w>": 2529,
    "prises</w>": 2530,
    "construction</w>": 2531,
    "structu": 2532,
    "occa": 2533,
    "notre</w>": 2534,
    "culture</w>": 2535,
    "lées</w>": 2536,
    "87": 2537,
    "dées</w>": 2538,
    "aines</w>": 2539,
    "sse</w>": 2540,
    "duit</w>": 2541,
    "sujet</w>": 2542,
    "3e</w>": 2543,
    "col": 2544,
    "interdi": 2545,
    "taxe</w>": 2546,
    "contenu</w>": 2547,
    "désor": 2548,
    "capital</w>": 2549,
    "bin": 2550,
    "distribu": 2551,
    "60": 2552,
    "organisations</w>": 2553,
    "ison</w>": 2554,
    "ai</w>": 2555,
    "rapports</w>": 2556,
    "pora": 2557,
    "propos</w>": 2558,
    "enfant</w>": 2559,
    "cg": 2560,
    "bas": 2561,
    "villa": 2562,
    "européen</w>": 2563,
    "56</w>": 2564,
    "ressor": 2565,
    "cence</w>": 2566,
    "ttes</w>": 2567,
    "légalité</w>": 2568,
    "nov</w>": 2569,
    "prévu</w>": 2570,
    "deu": 2571,
    "1993</w>": 2572,
    "opéra": 2573,
    "créancier</w>": 2574,
    "éven": 2575,
    "éché": 2576,
    "fr</w>": 2577,
    "surtout</w>": 2578,
    "fo": 2579,
    "lés</w>": 2580,
    "interprétation</w>": 2581,
    "reté</w>": 2582,
    "continu": 2583,
    "réserve</w>": 2584,
    "marchan": 2585,
    "gie</w>": 2586,
    "2019</w>": 2587,
    "télé": 2588,
    "tier</w>": 2589,
    "nullité</w>": 2590,
    "60</w>": 2591,
    "voire</w>": 2592,
    "80</w>": 2593,
    "tour": 2594,
    "délé": 2595,
    "connaître</w>": 2596,
    "roy": 2597,
    "jam": 2598,
    "tribunaux</w>": 2599,
    "sées</w>": 2600,
    "infractions</w>": 2601,
    "parlement</w>": 2602,
    "57</w>": 2603,
    "économiques</w>": 2604,
    "ligi": 2605,
    "gements</w>": 2606,
    "oct</w>": 2607,
    "rie</w>": 2608,
    "inscri": 2609,
    "mité</w>": 2610,
    "agir</w>": 2611,
    "lent</w>": 2612,
    "annulation</w>": 2613,
    "lisme</w>": 2614,
    "dossier</w>": 2615,
    "atteinte</w>": 2616,
    "revenus</w>": 2617,
    "unité</w>": 2618,
    "champ</w>": 2619,
    "nouvelles</w>": 2620,
    "différentes</w>": 2621,
    "prévue</w>": 2622,
    "banc": 2623,
    "loi</w>": 2624,
    "conventions</w>": 2625,
    "plé": 2626,
    "conséquences</w>": 2627,
    "profit</w>": 2628,
    "époux</w>": 2629,
    "circonstances</w>": 2630,
    "ples</w>": 2631,
    "vou": 2632,
    "70": 2633,
    "secré": 2634,
    "95</w>": 2635,
    "ouvrage</w>": 2636,
    "99</w>": 2637,
    "prévoit</w>": 2638,
    "2026</w>": 2639,
    "responsable</w>": 2640,
    "vres</w>": 2641,
    "confé": 2642,
    "enfants</w>": 2643,
    "normes</w>": 2644,
    "glob": 2645,
    "law</w>": 2646,
    "tements</w>": 2647,
    "févr</w>": 2648,
    "59</w>": 2649,
    "tiss": 2650,
    "source</w>": 2651,
    "rural</w>": 2652,
    "cessi": 2653,
    "posent</w>": 2654,
    "ensuite</w>": 2655,
    "ada</w>": 2656,
    "supra</w>": 2657,
    "sch": 2658,
    "siècle</w>": 2659,
    "améri": 2660,
    "98</w>": 2661,
    "certain</w>": 2662,
    "dernière</w>": 2663,
    "financier</w>": 2664,
    "idée</w>": 2665,
    "invo": 2666,
    "89</w>": 2667,
    "déliv": 2668,
    "ville</w>": 2669,
    "72</w>": 2670,
    "lles</w>": 2671,
    "histoire</w>": 2672,
    "soli": 2673,
    "trer</w>": 2674,
    "propres</w>": 2675,
    "so</w>": 2676,
    "douan": 2677,
    "document</w>": 2678,
    "quent</w>": 2679,
    "unis</w>": 2680,
    "comité</w>": 2681,
    "fron": 2682,
    "adap": 2683,
    "82</w>": 2684,
    "xième</w>": 2685,
    "mentaire</w>": 2686,
    "chacun</w>": 2687,
    "université</w>": 2688,
    "cinq</w>": 2689,
    "die</w>": 2690,
    "91</w>": 2691,
    "milli": 2692,
    "ération</w>": 2693,
    "préalable</w>": 2694,
    "réforme</w>": 2695,
    "zone</w>": 2696,
    "dépenses</w>": 2697,
    "tom": 2698,
    "93</w>": 2699,
    "écrit</w>": 2700,
    "ck": 2701,
    "ennes</w>": 2702,
    "86</w>": 2703,
    "85</w>": 2704,
    "mentation</w>": 2705,
    "législation</w>": 2706,
    "ton</w>": 2707,
    "antéri": 2708,
    "oli": 2709,
    "illi": 2710,
    "économie</w>": 2711,
    "indre</w>": 2712,
    "capacité</w>": 2713,
    "58</w>": 2714,
    "doctrine</w>": 2715,
    "désormais</w>": 2716,
    "titulaire</w>": 2717,
    "nécessaires</w>": 2718,
    "tard</w>": 2719,
    "transfer": 2720,
    "fré": 2721,
    "dessus</w>": 2722,
    "94</w>": 2723,
    "ligne</w>": 2724,
    "consent": 2725,
    "recu": 2726,
    "juill</w>": 2727,
    "expres": 2728,
    "locales</w>": 2729,
    "remp": 2730,
    "ly": 2731,
    "établissements</w>": 2732,
    "ministres</w>": 2733,
    "am</w>": 2734,
    "ze</w>": 2735,
    "ints</w>": 2736,
    "1991</w>": 2737,
    "t_il</w>": 2738,
    "gées</w>": 2739,
    "dés</w>": 2740,
    "arri": 2741,
    "lui_": 2742,
    "secteur</w>": 2743,
    "santé</w>": 2744,
    "sol": 2745,
    "75</w>": 2746,
    "tères</w>": 2747,
    "bis</w>": 2748,
    "unies</w>": 2749,
    "évolution</w>": 2750,
    "tari": 2751,
    "contrô": 2752,
    "dla</w>": 2753,
    "62</w>": 2754,
    "lementa": 2755,
    "jamais</w>": 2756,
    "bour": 2757,
    "intervention</w>": 2758,
    "violation</w>": 2759,
    "sanctions</w>": 2760,
    "opposition</w>": 2761,
    "lui_même</w>": 2762,
    "pr</w>": 2763,
    "réalisation</w>": 2764,
    "ché</w>": 2765,
    "participation</w>": 2766,
    "ima": 2767,
    "travers</w>": 2768,
    "charges</w>": 2769,
    "crédi": 2770,
    "seront</w>": 2771,
    "fut</w>": 2772,
    "dl": 2773,
    "auteurs</w>": 2774,
    "moder": 2775,
    "agré": 2776,
    "2021</w>": 2777,
    "ories</w>": 2778,
    "objectif</w>": 2779,
    "mandat</w>": 2780,
    "exam": 2781,
    "dépar": 2782,
    "résolution</w>": 2783,
    "concep": 2784,
    "92</w>": 2785,
    "commen": 2786,
    "unique</w>": 2787,
    "dc</w>": 2788,
    "emploi</w>": 2789,
    "offi": 2790,
    "cemac</w>": 2791,
    "hommes</w>": 2792,
    "ément</w>": 2793,
    "8886": 2794,
    "cations</w>": 2795,
    "faisant</w>": 2796,
    "dite</w>": 2797,
    "84</w>": 2798,
    "97</w>": 2799,
    "nomin": 2800,
    "net</w>": 2801,
    "obtenir</w>": 2802,
    "96</w>": 2803,
    "rev</w>": 2804,
    "sorte</w>": 2805,
    "précise</w>": 2806,
    "dépô": 2807,
    "rése": 2808,
    "81</w>": 2809,
    "modification</w>": 2810,
    "ts_": 2811,
    "déba": 2812,
    "revue</w>": 2813,
    "expression</w>": 2814,
    "infra</w>": 2815,
    "consentement</w>": 2816,
    "rob": 2817,
    "toires</w>": 2818,
    "mariage</w>": 2819,
    "expéri": 2820,
    "communes</w>": 2821,
    "beau": 2822,
    "mala": 2823,
    "visi": 2824,
    "classi": 2825,
    "ver</w>": 2826,
    "publicité</w>": 2827,
    "boration</w>": 2828,
    "systèmes</w>": 2829,
    "lière</w>": 2830,
    "straté": 2831,
    "regard</w>": 2832,
    "prit</w>": 2833,
    "offre</w>": 2834,
    "prouv": 2835,
    "avaient</w>": 2836,
    "exercer</w>": 2837,
    "mal</w>": 2838,
    "connu</w>": 2839,
    "procè": 2840,
    "04</w>": 2841,
    "immédi": 2842,
    "rémun": 2843,
    "htt": 2844,
    "èrent</w>": 2845,
    "83</w>": 2846,
    "immeuble</w>": 2847,
    "01</w>": 2848,
    "63</w>": 2849,
    "sentence</w>": 2850,
    "appu": 2851,
    "65</w>": 2852,
    "dir</w>": 2853,
    "enquête</w>": 2854,
    "confi": 2855,
    "dirige": 2856,
    "vra": 2857,
    "70</w>": 2858,
    "outi": 2859,
    "perman": 2860,
    "mau": 2861,
    "for</w>": 2862,
    "prescri": 2863,
    "journal</w>": 2864,
    "association</w>": 2865,
    "recouv": 2866,
    "élément</w>": 2867,
    "ène</w>": 2868,
    "09</w>": 2869,
    "marchandis": 2870,
    "proté": 2871,
    "cc</w>": 2872,
    "recue": 2873,
    "bail</w>": 2874,
    "bure": 2875,
    "dommage</w>": 2876,
    "opini": 2877,
    "créance</w>": 2878,
    "revenu</w>": 2879,
    "ouverture</w>": 2880,
    "influ": 2881,
    "lettre</w>": 2882,
    "titude</w>": 2883,
    "réparation</w>": 2884,
    "piè": 2885,
    "ly</w>": 2886,
    "demander</w>": 2887,
    "intes</w>": 2888,
    "imposition</w>": 2889,
    "fonciers</w>": 2890,
    "cgi</w>": 2891,
    "interne</w>": 2892,
    "procur": 2893,
    "consomma": 2894,
    "peines</w>": 2895,
    "veil": 2896,
    "cile</w>": 2897,
    "personna": 2898,
    "directeur</w>": 2899,
    "extra": 2900,
    "sanction</w>": 2901,
    "dec": 2902,
    "propriétaire</w>": 2903,
    "étranger</w>": 2904,
    "intérieur</w>": 2905,
    "conjo": 2906,
    "clauses</w>": 2907,
    "tels</w>": 2908,
    "raux</w>": 2909,
    "renfor": 2910,
    "envis": 2911,
    "physique</w>": 2912,
    "famili": 2913,
    "87</w>": 2914,
    "mondi": 2915,
    "énon": 2916,
    "résultats</w>": 2917,
    "dis</w>": 2918,
    "fiscales</w>": 2919,
    "ba</w>": 2920,
    "positions</w>": 2921,
    "héri": 2922,
    "amin": 2923,
    "modèle</w>": 2924,
    "exon": 2925,
    "auprès</w>": 2926,
    "applique</w>": 2927,
    "79</w>": 2928,
    "référence</w>": 2929,
    "saisie</w>": 2930,
    "nement</w>": 2931,
    "grand</w>": 2932,
    "61</w>": 2933,
    "facul": 2934,
    "introduction</w>": 2935,
    "agent</w>": 2936,
    "conséquence</w>": 2937,
    "science</w>": 2938,
    "limites</w>": 2939,
    "rel</w>": 2940,
    "site</w>": 2941,
    "présence</w>": 2942,
    "69</w>": 2943,
    "donnée</w>": 2944,
    "permettre</w>": 2945,
    "posant</w>": 2946,
    "nationales</w>": 2947,
    "résultat</w>": 2948,
    "tor": 2949,
    "patrimo": 2950,
    "rar": 2951,
    "au_": 2952,
    "west</w>": 2953,
    "fications</w>": 2954,
    "hen": 2955,
    "examen</w>": 2956,
    "iser</w>": 2957,
    "scienti": 2958,
    "institution</w>": 2959,
    "congo</w>": 2960,
    "bur": 2961,
    "177</w>": 2962,
    "mon</w>": 2963,
    "crime</w>": 2964,
    "comm</w>": 2965,
    "deuxième</w>": 2966,
    "pé</w>": 2967,
    "lence</w>": 2968,
    "we": 2969,
    "ted</w>": 2970,
    "tron": 2971,
    "exter": 2972,
    "176</w>": 2973,
    "doute</w>": 2974,
    "neu": 2975,
    "femmes</w>": 2976,
    "espèce</w>": 2977,
    "rances</w>": 2978,
    "lign": 2979,
    "dy": 2980,
    "majorité</w>": 2981,
    "71</w>": 2982,
    "dû": 2983,
    "moi": 2984,
    "résulte</w>": 2985,
    "aménagement</w>": 2986,
    "ain</w>": 2987,
    "pouvait</w>": 2988,
    "64</w>": 2989,
    "sept</w>": 2990,
    "urban": 2991,
    "bén": 2992,
    "88</w>": 2993,
    "eux_": 2994,
    "88866": 2995,
    "tenus</w>": 2996,
    "évaluation</w>": 2997,
    "anche</w>": 2998,
    "03</w>": 2999,
    "propor": 3000,
    "allem": 3001,
    "dette</w>": 3002,
    "trop</w>": 3003,
    "airement</w>": 3004,
    "ementa": 3005,
    "valeurs</w>": 3006,
    "pourra</w>": 3007,
    "réponse</w>": 3008,
    "déta": 3009,
    "puisque</w>": 3010,
    "revanche</w>": 3011,
    "cte</w>": 3012,
    "tn</w>": 3013,
    "permettant</w>": 3014,
    "matique</w>": 3015,
    "office</w>": 3016,
    "engagement</w>": 3017,
    "empê": 3018,
    "avantage</w>": 3019,
    "apparti": 3020,
    "tables</w>": 3021,
    "corps</w>": 3022,
    "2e</w>": 3023,
    "78</w>": 3024,
    "dents</w>": 3025,
    "67</w>": 3026,
    "pan": 3027,
    "dus</w>": 3028,
    "privi": 3029,
    "1989</w>": 3030,
    "domi": 3031,
    "prestations</w>": 3032,
    "liers</w>": 3033,
    "taxes</w>": 3034,
    "sh": 3035,
    "ga</w>": 3036,
    "vi</w>": 3037,
    "eté</w>": 3038,
    "sommes</w>": 3039,
    "quelque</w>": 3040,
    "esprit</w>": 3041,
    "cam": 3042,
    "ron": 3043,
    "soph": 3044,
    "mouv": 3045,
    "former</w>": 3046,
    "provis": 3047,
    "éventu": 3048,
    "mode</w>": 3049,
    "convient</w>": 3050,
    "nécessité</w>": 3051,
    "100</w>": 3052,
    "échan": 3053,
    "ache": 3054,
    "quatre</w>": 3055,
    "tin</w>": 3056,
    "coutumi": 3057,
    "licence</w>": 3058,
    "conception</w>": 3059,
    "besoin</w>": 3060,
    "principal</w>": 3061,
    "nég": 3062,
    "conflit</w>": 3063,
    "occasion</w>": 3064,
    "objectifs</w>": 3065,
    "délais</w>": 3066,
    "fondement</w>": 3067,
    "reconnaissance</w>": 3068,
    "maître</w>": 3069,
    "rtd</w>": 3070,
    "associés</w>": 3071,
    "généralement</w>": 3072,
    "ko": 3073,
    "embour": 3074,
    "adres": 3075,
    "budget</w>": 3076,
    "pétro": 3077,
    "déclar": 3078,
    "rendre</w>": 3079,
    "aspec": 3080,
    "imum</w>": 3081,
    "73</w>": 3082,
    "limite</w>": 3083,
    "veu": 3084,
    "compétences</w>": 3085,
    "requête</w>": 3086,
    "plutôt</w>": 3087,
    "tionnelles</w>": 3088,
    "financière</w>": 3089,
    "candi": 3090,
    "duire</w>": 3091,
    "ben": 3092,
    "laté": 3093,
    "dispen": 3094,
    "somme</w>": 3095,
    "mieux</w>": 3096,
    "directe</w>": 3097,
    "dallo": 3098,
    "ograph": 3099,
    "américa": 3100,
    "financiers</w>": 3101,
    "imes</w>": 3102,
    "commis</w>": 3103,
    "telles</w>": 3104,
    "74</w>": 3105,
    "st</w>": 3106,
    "procureur</w>": 3107,
    "66</w>": 3108,
    "parmi</w>": 3109,
    "02</w>": 3110,
    "frau": 3111,
    "professionnel</w>": 3112,
    "illu": 3113,
    "chez</w>": 3114,
    "sés</w>": 3115,
    "suivi</w>": 3116,
    "religi": 3117,
    "ph</w>": 3118,
    "exclusi": 3119,
    "parti</w>": 3120,
    "emprun": 3121,
    "écar": 3122,
    "siège</w>": 3123,
    "page</w>": 3124,
    "68</w>": 3125,
    "avo": 3126,
    "patrimoine</w>": 3127,
    "désign": 3128,
    "renouv": 3129,
    "sous": 3130,
    "receva": 3131,
    "bancaire</w>": 3132,
    "comment</w>": 3133,
    "investissement</w>": 3134,
    "tionnalité</w>": 3135,
    "2022</w>": 3136,
    "rance</w>": 3137,
    "entrée</w>": 3138,
    "demeure</w>": 3139,
    "territoriales</w>": 3140,
    "philo": 3141,
    "tab": 3142,
    "impu": 3143,
    "éviter</w>": 3144,
    "gag": 3145,
    "verb": 3146,
    "certaine</w>": 3147,
    "jeu</w>": 3148,
    "pements</w>": 3149,
    "terr": 3150,
    "validité</w>": 3151,
    "tcha": 3152,
    "semb": 3153,
    "jean": 3154,
    "seur</w>": 3155,
    "ancien</w>": 3156,
    "76</w>": 3157,
    "importance</w>": 3158,
    "diffici": 3159,
    "hypothèse</w>": 3160,
    "votre</w>": 3161,
    "satis": 3162,
    "wi": 3163,
    "contexte</w>": 3164,
    "77</w>": 3165,
    "lementaires</w>": 3166,
    "financement</w>": 3167,
    "domin": 3168,
    "coles</w>": 3169,
    "lait</w>": 3170,
    "libertés</w>": 3171,
    "candida": 3172,
    "suspen": 3173,
    "beaucoup</w>": 3174,
    "souverain": 3175,
    "concl</w>": 3176,
    "moni": 3177,
    "kin": 3178,
    "magis": 3179,
    "aug": 3180,
    "assurances</w>": 3181,
    "ront</w>": 3182,
    "tative</w>": 3183,
    "ges": 3184,
    "études</w>": 3185,
    "certi": 3186,
    "magistra": 3187,
    "transfert</w>": 3188,
    "spécial</w>": 3189,
    "mentaires</w>": 3190,
    "qw": 3191,
    "catégorie</w>": 3192,
    "cées</w>": 3193,
    "isition</w>": 3194,
    "nouveaux</w>": 3195,
    "copi": 3196,
    "histori": 3197,
    "locaux</w>": 3198,
    "scientifi": 3199,
    "gences</w>": 3200,
    "origin": 3201,
    "privée</w>": 3202,
    "représentant</w>": 3203,
    "groupes</w>": 3204,
    "traités</w>": 3205,
    "échéant</w>": 3206,
    "poursuite</w>": 3207,
    "tantes</w>": 3208,
    "légale</w>": 3209,
    "navi": 3210,
    "conclusion</w>": 3211,
    "posées</w>": 3212,
    "jean</w>": 3213,
    "erie</w>": 3214,
    "cal</w>": 3215,
    "égalité</w>": 3216,
    "ouest</w>": 3217,
    "dépôt</w>": 3218,
    "mou": 3219,
    "étaires</w>": 3220,
    "problème</w>": 3221,
    "lesquelles</w>": 3222,
    "juridictionn": 3223,
    "suit</w>": 3224,
    "tré": 3225,
    "liv": 3226,
    "1556": 3227,
    "métho": 3228,
    "espace</w>": 3229,
    "conduit</w>": 3230,
    "issu": 3231,
    "second</w>": 3232,
    "puisse</w>": 3233,
    "litige</w>": 3234,
    "crimes</w>": 3235,
    "remise</w>": 3236,
    "compétente</w>": 3237,
    "ette</w>": 3238,
    "gres": 3239,
    "fili": 3240,
    "confir": 3241,
    "susceptible</w>": 3242,
    "marchandises</w>": 3243,
    "internationaux</w>": 3244,
    "tivité</w>": 3245,
    "compara": 3246,
    "contradi": 3247,
    "bon": 3248,
    "accordée</w>": 3249,
    "gues</w>": 3250,
    "08</w>": 3251,
    "distinction</w>": 3252,
    "appropri": 3253,
    "audience</w>": 3254,
    "maintien</w>": 3255,
    "cés</w>": 3256,
    "05</w>": 3257,
    "ami": 3258,
    "rempla": 3259,
    "dispon": 3260,
    "bâ": 3261,
    "circu": 3262,
    "delà</w>": 3263,
    "élev": 3264,
    "erreur</w>": 3265,
    "marque</w>": 3266,
    "juste</w>": 3267,
    "dan": 3268,
    "rendu</w>": 3269,
    "istes</w>": 3270,
    "terrain</w>": 3271,
    "examin": 3272,
    "envisag": 3273,
    "qués</w>": 3274,
    "dommages</w>": 3275,
    "matières</w>": 3276,
    "disci": 3277,
    "commerciale</w>": 3278,
    "fins</w>": 3279,
    "psy": 3280,
    "tré</w>": 3281,
    "ies</w>": 3282,
    "asse": 3283,
    "motiv": 3284,
    "aux": 3285,
    "ohada</w>": 3286,
    "raisons</w>": 3287,
    "considéré</w>": 3288,
    "session</w>": 3289,
    "agissant</w>": 3290,
    "programme</w>": 3291,
    "préf": 3292,
    "pourtant</w>": 3293,
    "chement</w>": 3294,
    "régimes</w>": 3295,
    "contractuelle</w>": 3296,
    "dalloz</w>": 3297,
    "besoins</w>": 3298,
    "motifs</w>": 3299,
    "philosoph": 3300,
    "europe</w>": 3301,
    "contribuable</w>": 3302,
    "étudi": 3303,
    "ert</w>": 3304,
    "transport</w>": 3305,
    "révision</w>": 3306,
    "difficultés</w>": 3307,
    "caus": 3308,
    "yao</w>": 3309,
    "aide</w>": 3310,
    "syndica": 3311,
    "projets</w>": 3312,
    "ci_dessus</w>": 3313,
    "acci": 3314,
    "réglementation</w>": 3315,
    "constituent</w>": 3316,
    "organismes</w>": 3317,
    "surveil": 3318,
    "iller</w>": 3319,
    "distingu": 3320,
    "professionnelle</w>": 3321,
    "établi</w>": 3322,
    "centrale</w>": 3323,
    "te_": 3324,
    "administratives</w>": 3325,
    "disponi": 3326,
    "érant</w>": 3327,
    "nisation</w>": 3328,
    "délit</w>": 3329,
    "fourn": 3330,
    "ak": 3331,
    "important</w>": 3332,
    "inten": 3333,
    "publication</w>": 3334,
    "démocratie</w>": 3335,
    "améli": 3336,
    "enquê": 3337,
    "ative</w>": 3338,
    "ip</w>": 3339,
    "enca": 3340,
    "coopération</w>": 3341,
    "établir</w>": 3342,
    "ail": 3343,
    "vations</w>": 3344,
    "rembour": 3345,
    "problèmes</w>": 3346,
    "relatifs</w>": 3347,
    "garanties</w>": 3348,
    "les_": 3349,
    "urbanisme</w>": 3350,
    "commercial</w>": 3351,
    "payer</w>": 3352,
    "catégories</w>": 3353,
    "phé": 3354,
    "démon": 3355,
    "laiss": 3356,
    "puissance</w>": 3357,
    "mè": 3358,
    "sto": 3359,
    "brux": 3360,
    "collective</w>": 3361,
    "recomman": 3362,
    "interdiction</w>": 3363,
    "06</w>": 3364,
    "gui": 3365,
    "avr</w>": 3366,
    "ressort</w>": 3367,
    "enregistrement</w>": 3368,
    "lesquels</w>": 3369,
    "réd": 3370,
    "accompa": 3371,
    "obligatoire</w>": 3372,
    "double</w>": 3373,
    "pa</w>": 3374,
    "colon": 3375,
    "ties</w>": 3376,
    "refus</w>": 3377,
    "em</w>": 3378,
    "quit": 3379,
    "douanes</w>": 3380,
    "clé": 3381,
    "particuliers</w>": 3382,
    "discu": 3383,
    "bénéfice</w>": 3384,
    "ts_unis</w>": 3385,
    "régula": 3386,
    "aven": 3387,
    "bra": 3388,
    "bruxelles</w>": 3389,
    "http</w>": 3390,
    "recouvrement</w>": 3391,
    "app": 3392,
    "quo": 3393,
    "professionnels</w>": 3394,
    "procéder</w>": 3395,
    "citoyens</w>": 3396,
    "faveur</w>": 3397,
    "1988</w>": 3398,
    "foncières</w>": 3399,
    "méthode</w>": 3400,
    "apparaît</w>": 3401,
    "situations</w>": 3402,
    "ri</w>": 3403,
    "stipu": 3404,
    "pierre</w>": 3405,
    "hypothè": 3406,
    "client</w>": 3407,
    "père</w>": 3408,
    "supérieur</w>": 3409,
    "susceptibles</w>": 3410,
    "gni": 3411,
    "aura</w>": 3412,
    "appliquer</w>": 3413,
    "discipl": 3414,
    "lo</w>": 3415,
    "généraux</w>": 3416,
    "suivants</w>": 3417,
    "diverses</w>": 3418,
    "vé</w>": 3419,
    "fou": 3420,
    "07</w>": 3421,
    "posés</w>": 3422,
    "elle_": 3423,
    "congo": 3424,
    "mort</w>": 3425,
    "infé": 3426,
    "critères</w>": 3427,
    "préten": 3428,
    "suprê": 3429,
    "parten": 3430,
    "ar</w>": 3431,
    "créances</w>": 3432,
    "natu": 3433,
    "impo": 3434,
    "gau": 3435,
    "1986</w>": 3436,
    "charte</w>": 3437,
    "passi": 3438,
    "détermination</w>": 3439,
    "extéri": 3440,
    "gd": 3441,
    "més</w>": 3442,
    "vise</w>": 3443,
    "particulièrement</w>": 3444,
    "prati": 3445,
    "dés": 3446,
    "choses</w>": 3447,
    "exprim": 3448,
    "attribution</w>": 3449,
    "récla": 3450,
    "1987</w>": 3451,
    "consommation</w>": 3452,
    "flexi": 3453,
    "lutte</w>": 3454,
    "nombreux</w>": 3455,
    "structures</w>": 3456,
    "lières</w>": 3457,
    "logiques</w>": 3458,
    "consci": 3459,
    "pouvant</w>": 3460,
    "super": 3461,
    "répu": 3462,
    "déterminer</w>": 3463,
    "universi": 3464,
    "reconnu": 3465,
    "essentiel</w>": 3466,
    "impose</w>": 3467,
    "approche</w>": 3468,
    "humani": 3469,
    "élaboration</w>": 3470,
    "chat</w>": 3471,
    "véhi": 3472,
    "lable</w>": 3473,
    "gage</w>": 3474,
    "voy</w>": 3475,
    "attendu</w>": 3476,
    "table": 3477,
    "cture</w>": 3478,
    "hv": 3479,
    "ettre</w>": 3480,
    "ete</w>": 3481,
    "total</w>": 3482,
    "perspec": 3483,
    "abri": 3484,
    "surveillance</w>": 3485,
    "mique</w>": 3486,
    "univers": 3487,
    "judiciaires</w>": 3488,
    "avoca": 3489,
    "anmoins</w>": 3490,
    "déro": 3491,
    "mère</w>": 3492,
    "transi": 3493,
    "usa": 3494,
    "ro</w>": 3495,
    "zones</w>": 3496,
    "liquidation</w>": 3497,
    "son": 3498,
    "fédé": 3499,
    "domaines</w>": 3500,
    "viennent</w>": 3501,
    "néanmoins</w>": 3502,
    "efficacité</w>": 3503,
    "foi</w>": 3504,
    "troisi": 3505,
    "intermédi": 3506,
    "calcu": 3507,
    "vocation</w>": 3508,
    "do</w>": 3509,
    "compen": 3510,
    "assez</w>": 3511,
    "prescription</w>": 3512,
    "minier</w>": 3513,
    "he": 3514,
    "impa": 3515,
    "ateurs</w>": 3516,
    "électron": 3517,
    "morales</w>": 3518,
    "relève</w>": 3519,
    "gique</w>": 3520,
    "contribution</w>": 3521,
    "corre": 3522,
    "militaire</w>": 3523,
    "appréciation</w>": 3524,
    "solutions</w>": 3525,
    "ier</w>": 3526,
    "changement</w>": 3527,
    "missions</w>": 3528,
    "abus</w>": 3529,
    "côté</w>": 3530,
    "véritable</w>": 3531,
    "véhicu": 3532,
    "substitu": 3533,
    "au_delà</w>": 3534,
    "pourquoi</w>": 3535,
    "plein</w>": 3536,
    "intention</w>": 3537,
    "ner": 3538,
    "distribution</w>": 3539,
    "militaires</w>": 3540,
    "cteurs</w>": 3541,
    "interro": 3542,
    "délibé": 3543,
    "indépendance</w>": 3544,
    "relevant</w>": 3545,
    "trice</w>": 3546,
    "acquisition</w>": 3547,
    "partage</w>": 3548,
    "techno": 3549,
    "africaine</w>": 3550,
    "demandes</w>": 3551,
    "pièces</w>": 3552,
    "yer</w>": 3553,
    "man</w>": 3554,
    "pc</w>": 3555,
    "devoir</w>": 3556,
    "générales</w>": 3557,
    "secret</w>": 3558,
    "notification</w>": 3559,
    "opinion</w>": 3560,
    "immeubles</w>": 3561,
    "populations</w>": 3562,
    "argu": 3563,
    "commiss": 3564,
    "agricole</w>": 3565,
    "euros</w>": 3566,
    "rappel": 3567,
    "femme</w>": 3568,
    "muni": 3569,
    "inféri": 3570,
    "1985</w>": 3571,
    "maî": 3572,
    "court</w>": 3573,
    "mém": 3574,
    "pha": 3575,
    "ia</w>": 3576,
    "cj": 3577,
    "nomination</w>": 3578,
    "d_": 3579,
    "dix</w>": 3580,
    "devrait</w>": 3581,
    "bureau</w>": 3582,
    "us": 3583,
    "annexe</w>": 3584,
    "jac": 3585,
    "salariés</w>": 3586,
    "favor": 3587,
    "tenti": 3588,
    "hér": 3589,
    "suprême</w>": 3590,
    "céder</w>": 3591,
    "début</w>": 3592,
    "sûreté</w>": 3593,
    "tages</w>": 3594,
    "peuple</w>": 3595,
    "jugé</w>": 3596,
    "consiste</w>": 3597,
    "points</w>": 3598,
    "100": 3599,
    "ismes</w>": 3600,
    "six</w>": 3601,
    "tionnels</w>": 3602,
    "matériel</w>": 3603,
    "intellec": 3604,
    "passé</w>": 3605,
    "vote</w>": 3606,
    "m09": 3607,
    "seconde</w>": 3608,
    "ger": 3609,
    "proposition</w>": 3610,
    "décentra": 3611,
    "progres": 3612,
    "local</w>": 3613,
    "1982</w>": 3614,
    "sté": 3615,
    "venir</w>": 3616,
    "actif</w>": 3617,
    "indemnité</w>": 3618,
    "pén</w>": 3619,
    "bre": 3620,
    "avons</w>": 3621,
    "102</w>": 3622,
    "compar": 3623,
    "jean_": 3624,
    "population</w>": 3625,
    "large</w>": 3626,
    "saisi</w>": 3627,
    "résultant</w>": 3628,
    "vité</w>": 3629,
    "troisième</w>": 3630,
    "porté</w>": 3631,
    "dues</w>": 3632,
    "dispositif</w>": 3633,
    "dance</w>": 3634,
    "ee</w>": 3635,
    "alli": 3636,
    "physiques</w>": 3637,
    "motif</w>": 3638,
    "absolu": 3639,
    "différence</w>": 3640,
    "vendeur</w>": 3641,
    "supplé": 3642,
    "cl": 3643,
    "wl": 3644,
    "sciences</w>": 3645,
    "accords</w>": 3646,
    "ligence</w>": 3647,
    "appartient</w>": 3648,
    "réception</w>": 3649,
    "the": 3650,
    "rapi": 3651,
    "représentation</w>": 3652,
    "bénéficiaire</w>": 3653,
    "lements</w>": 3654,
    "crise</w>": 3655,
    "pénales</w>": 3656,
    "chiff": 3657,
    "nationaux</w>": 3658,
    "phénom": 3659,
    "présentation</w>": 3660,
    "bilités</w>": 3661,
    "abro": 3662,
    "domicile</w>": 3663,
    "autonomie</w>": 3664,
    "fondamentaux</w>": 3665,
    "traite</w>": 3666,
    "rat": 3667,
    "inclu": 3668,
    "légitime</w>": 3669,
    "assistance</w>": 3670,
    "inven": 3671,
    "grands</w>": 3672,
    "types</w>": 3673,
    "re_": 3674,
    "connaît</w>": 3675,
    "relation</w>": 3676,
    "organes</w>": 3677,
    "accompli": 3678,
    "commerciales</w>": 3679,
    "argent</w>": 3680,
    "divers</w>": 3681,
    "souh": 3682,
    "influence</w>": 3683,
    "exerce</w>": 3684,
    "requérant</w>": 3685,
    "égal</w>": 3686,
    "fais": 3687,
    "intégration</w>": 3688,
    "quées</w>": 3689,
    "redev": 3690,
    "dipl": 3691,
    "monétaire</w>": 3692,
    "criminelle</w>": 3693,
    "ita": 3694,
    "spécialis": 3695,
    "obser": 3696,
    "ting</w>": 3697,
    "enseign": 3698,
    "arrêts</w>": 3699,
    "plement</w>": 3700,
    "econom": 3701,
    "fixe</w>": 3702,
    "dû</w>": 3703,
    "dirigeants</w>": 3704,
    "dement</w>": 3705,
    "réflexi": 3706,
    "qualification</w>": 3707,
    "présidenti": 3708,
    "compétent</w>": 3709,
    "quin": 3710,
    "harmon": 3711,
    "réparti": 3712,
    "léga": 3713,
    "ck</w>": 3714,
    "ry</w>": 3715,
    "port": 3716,
    "particulière</w>": 3717,
    "amen": 3718,
    "caution</w>": 3719,
    "bat": 3720,
    "prov": 3721,
    "épo": 3722,
    "menta": 3723,
    "amment</w>": 3724,
    "pertin": 3725,
    "individus</w>": 3726,
    "avocats</w>": 3727,
    "assimi": 3728,
    "souveraineté</w>": 3729,
    "ess": 3730,
    "bénin</w>": 3731,
    "restri": 3732,
    "personnalité</w>": 3733,
    "devient</w>": 3734,
    "individu</w>": 3735,
    "alisme</w>": 3736,
    "recettes</w>": 3737,
    "wor": 3738,
    "sables</w>": 3739,
    "xx": 3740,
    "1980</w>": 3741,
    "gro": 3742,
    "maire</w>": 3743,
    "voi</w>": 3744,
    "anim": 3745,
    "nécessairement</w>": 3746,
    "édu": 3747,
    "dres</w>": 3748,
    "prime</w>": 3749,
    "rages</w>": 3750,
    "trouver</w>": 3751,
    "légal</w>": 3752,
    "lie</w>": 3753,
    "démocratique</w>": 3754,
    "présenter</w>": 3755,
    "décès</w>": 3756,
    "visé</w>": 3757,
    "ed": 3758,
    "provisoire</w>": 3759,
    "identité</w>": 3760,
    "bénéfices</w>": 3761,
    "particulières</w>": 3762,
    "prêt</w>": 3763,
    "rempli": 3764,
    "structure</w>": 3765,
    "exécutif</w>": 3766,
    "ving": 3767,
    "aban": 3768,
    "conduite</w>": 3769,
    "plupart</w>": 3770,
    "elle_même</w>": 3771,
    "comportement</w>": 3772,
    "ye</w>": 3773,
    "exten": 3774,
    "secrétaire</w>": 3775,
    "211": 3776,
    "modes</w>": 3777,
    "sect</w>": 3778,
    "poursuites</w>": 3779,
    "time</w>": 3780,
    "considérant</w>": 3781,
    "len": 3782,
    "direct</w>": 3783,
    "entretien</w>": 3784,
    "grâ": 3785,
    "déterminée</w>": 3786,
    "investissements</w>": 3787,
    "promo": 3788,
    "1984</w>": 3789,
    "rière</w>": 3790,
    "foresti": 3791,
    "malgré</w>": 3792,
    "gin": 3793,
    "exclusion</w>": 3794,
    "isonnement</w>": 3795,
    "commis": 3796,
    "autrement</w>": 3797,
    "cons</w>": 3798,
    "unes</w>": 3799,
    "auto": 3800,
    "cam</w>": 3801,
    "exigence</w>": 3802,
    "signa": 3803,
    "tableau</w>": 3804,
    "tabilité</w>": 3805,
    "prévus</w>": 3806,
    "politi": 3807,
    "agricoles</w>": 3808,
    "demment</w>": 3809,
    "signature</w>": 3810,
    "m07": 3811,
    "societe</w>": 3812,
    "sieur</w>": 3813,
    "milieu</w>": 3814,
    "passer</w>": 3815,
    "bonn": 3816,
    "uni</w>": 3817,
    "critère</w>": 3818,
    "verse</w>": 3819,
    "paraît</w>": 3820,
    "mécanismes</w>": 3821,
    "lle": 3822,
    "exes</w>": 3823,
    "pare": 3824,
    "utilité</w>": 3825,
    "ordinaire</w>": 3826,
    "bran": 3827,
    "103</w>": 3828,
    "complè": 3829,
    "zi": 3830,
    "comprendre</w>": 3831,
    "autru": 3832,
    "équilibre</w>": 3833,
    "village</w>": 3834,
    "vau": 3835,
    "souhai": 3836,
    "acquis</w>": 3837,
    "fiant</w>": 3838,
    "cités</w>": 3839,
    "condamnation</w>": 3840,
    "dien</w>": 3841,
    "conforme</w>": 3842,
    "sant</w>": 3843,
    "limin": 3844,
    "organe</w>": 3845,
    "concours</w>": 3846,
    "créanciers</w>": 3847,
    "ole</w>": 3848,
    "tionnaire</w>": 3849,
    "bres</w>": 3850,
    "fonctionnaires</w>": 3851,
    "ach": 3852,
    "puisqu</w>": 3853,
    "constituer</w>": 3854,
    "préfé": 3855,
    "peut_": 3856,
    "internet</w>": 3857,
    "nord</w>": 3858,
    "érar": 3859,
    "spec": 3860,
    "devait</w>": 3861,
    "préc</w>": 3862,
    "extr": 3863,
    "uel</w>": 3864,
    "fondée</w>": 3865,
    "grandes</w>": 3866,
    "don</w>": 3867,
    "réel</w>": 3868,
    "instal": 3869,
    "organique</w>": 3870,
    "matri": 3871,
    "détention</w>": 3872,
    "autrui</w>": 3873,
    "renseign": 3874,
    "tera</w>": 3875,
    "nombreuses</w>": 3876,
    "urb": 3877,
    "soulign": 3878,
    "sent</w>": 3879,
    "lan</w>": 3880,
    "vie": 3881,
    "grâce</w>": 3882,
    "tise</w>": 3883,
    "victimes</w>": 3884,
    "ieur</w>": 3885,
    "volu": 3886,
    "phase</w>": 3887,
    "accusé</w>": 3888,
    "urgence</w>": 3889,
    "ministéri": 3890,
    "réduction</w>": 3891,
    "roi</w>": 3892,
    "div": 3893,
    "exigences</w>": 3894,
    "raisonna": 3895,
    "duquel</w>": 3896,
    "piration</w>": 3897,
    "implique</w>": 3898,
    "étrangers</w>": 3899,
    "mots</w>": 3900,
    "ciation</w>": 3901,
    "hiérar": 3902,
    "fabri": 3903,
    "sensi": 3904,
    "respecter</w>": 3905,
    "ltd</w>": 3906,
    "instruments</w>": 3907,
    "suivantes</w>": 3908,
    "sément</w>": 3909,
    "not</w>": 3910,
    "land</w>": 3911,
    "personnelle</w>": 3912,
    "long</w>": 3913,
    "statuts</w>": 3914,
    "voies</w>": 3915,
    "dro": 3916,
    "difficile</w>": 3917,
    "souscri": 3918,
    "époque</w>": 3919,
    "profession</w>": 3920,
    "âge</w>": 3921,
    "mentionn": 3922,
    "travailleurs</w>": 3923,
    "couver": 3924,
    "________": 3925,
    "ologie</w>": 3926,
    "mées</w>": 3927,
    "fixé</w>": 3928,
    "orien": 3929,
    "spécifiques</w>": 3930,
    "conclusions</w>": 3931,
    "soumise</w>": 3932,
    "remar": 3933,
    "financières</w>": 3934,
    "conformité</w>": 3935,
    "associé</w>": 3936,
    "concili": 3937,
    "simplement</w>": 3938,
    "veut</w>": 3939,
    "ad</w>": 3940,
    "blan": 3941,
    "réglementaire</w>": 3942,
    "1983</w>": 3943,
    "ig": 3944,
    "ass</w>": 3945,
    "scientifique</w>": 3946,
    "fusion</w>": 3947,
    "jet": 3948,
    "réseau</w>": 3949,
    "diffu": 3950,
    "quanti": 3951,
    "prob": 3952,
    "référen": 3953,
    "choisi": 3954,
    "ratta": 3955,
    "obsta": 3956,
    "formé</w>": 3957,
    "budgétaire</w>": 3958,
    "cru": 3959,
    "simpli": 3960,
    "auquel</w>": 3961,
    "rf": 3962,
    "issue</w>": 3963,
    "2023</w>": 3964,
    "dimen": 3965,
    "dyna": 3966,
    "interdit</w>": 3967,
    "porteur</w>": 3968,
    "utile</w>": 3969,
    "ari": 3970,
    "magistrats</w>": 3971,
    "entrepren": 3972,
    "rants</w>": 3973,
    "sociologie</w>": 3974,
    "officiel</w>": 3975,
    "rémunération</w>": 3976,
    "dehors</w>": 3977,
    "discrimin": 3978,
    "223</w>": 3979,
    "territoriale</w>": 3980,
    "issances</w>": 3981,
    "adopté</w>": 3982,
    "rédaction</w>": 3983,
    "tir</w>": 3984,
    "sif</w>": 3985,
    "péra": 3986,
    "hq": 3987,
    "by</w>": 3988,
    "tora": 3989,
    "consid": 3990,
    "loin</w>": 3991,
    "demandeur</w>": 3992,
    "néga": 3993,
    "citer</w>": 3994,
    "aj": 3995,
    "région</w>": 3996,
    "consis": 3997,
    "colla": 3998,
    "sauve": 3999,
    "dresse</w>": 4000,
    "minu": 4001,
    "oppo": 4002,
    "copie</w>": 4003,
    "long": 4004,
    "restitu": 4005,
    "réci": 4006,
    "os</w>": 4007,
    "pro</w>": 4008,
    "gh</w>": 4009,
    "conclu</w>": 4010,
    "évolu": 4011,
    "chefs</w>": 4012,
    "han": 4013,
    "condamné</w>": 4014,
    "tionnaires</w>": 4015,
    "fiscalité</w>": 4016,
    "exterieur</w>": 4017,
    "ages</w>": 4018,
    "chés</w>": 4019,
    "naissance</w>": 4020,
    "renon": 4021,
    "saurait</w>": 4022,
    "contem": 4023,
    "archi": 4024,
    "idé": 4025,
    "durable</w>": 4026,
    "passe</w>": 4027,
    "jon": 4028,
    "critique</w>": 4029,
    "terror": 4030,
    "initiative</w>": 4031,
    "solli": 4032,
    "ot</w>": 4033,
    "cessions</w>": 4034,
    "comporte</w>": 4035,
    "ambi": 4036,
    "dédu": 4037,
    "sain": 4038,
    "composition</w>": 4039,
    "écla": 4040,
    "plai": 4041,
    "engagements</w>": 4042,
    "états_unis</w>": 4043,
    "salarié</w>": 4044,
    "ceux_": 4045,
    "blo": 4046,
    "administratifs</w>": 4047,
    "répondre</w>": 4048,
    "nuclé": 4049,
    "marche</w>": 4050,
    "dang": 4051,
    "régulation</w>": 4052,
    "versement</w>": 4053,
    "any</w>": 4054,
    "aspects</w>": 4055,
    "largement</w>": 4056,
    "expressément</w>": 4057,
    "a_": 4058,
    "113</w>": 4059,
    "comptable</w>": 4060,
    "location</w>": 4061,
    "suppose</w>": 4062,
    "mot</w>": 4063,
    "inscription</w>": 4064,
    "change</w>": 4065,
    "mouvement</w>": 4066,
    "saisir</w>": 4067,
    "agrément</w>": 4068,
    "débat</w>": 4069,
    "jeux</w>": 4070,
    "fiées</w>": 4071,
    "tisation</w>": 4072,
    "degré</w>": 4073,
    "ora": 4074,
    "contempora": 4075,
    "m06": 4076,
    "systé": 4077,
    "comprend</w>": 4078,
    "eurement</w>": 4079,
    "justifier</w>": 4080,
    "122</w>": 4081,
    "compati": 4082,
    "caractéristiques</w>": 4083,
    "reje": 4084,
    "rique</w>": 4085,
    "protéger</w>": 4086,
    "fort</w>": 4087,
    "litiges</w>": 4088,
    "eusement</w>": 4089,
    "recueil</w>": 4090,
    "soumises</w>": 4091,
    "emprisonnement</w>": 4092,
    "lieux</w>": 4093,
    "radi": 4094,
    "2025</w>": 4095,
    "parts</w>": 4096,
    "ends</w>": 4097,
    "rati": 4098,
    "parents</w>": 4099,
    "millions</w>": 4100,
    "limitée</w>": 4101,
    "créer</w>": 4102,
    "poi": 4103,
    "spécifique</w>": 4104,
    "m12": 4105,
    "registre</w>": 4106,
    "s_verb": 4107,
    "rend</w>": 4108,
    "1981</w>": 4109,
    "tanti": 4110,
    "soc</w>": 4111,
    "121</w>": 4112,
    "subor": 4113,
    "lise</w>": 4114,
    "africains</w>": 4115,
    "observations</w>": 4116,
    "nationalité</w>": 4117,
    "mines</w>": 4118,
    "pensée</w>": 4119,
    "tan</w>": 4120,
    "francs</w>": 4121,
    "fils</w>": 4122,
    "atoire</w>": 4123,
    "constitutionnalité</w>": 4124,
    "unilaté": 4125,
    "admis</w>": 4126,
    "grès</w>": 4127,
    "po</w>": 4128,
    "achat</w>": 4129,
    "rets</w>": 4130,
    "aff</w>": 4131,
    "faculté</w>": 4132,
    "attributions</w>": 4133,
    "ptions</w>": 4134,
    "automa": 4135,
    "environn": 4136,
    "représentants</w>": 4137,
    "mas": 4138,
    "perte</w>": 4139,
    "limitation</w>": 4140,
    "burkin": 4141,
    "dra": 4142,
    "presse</w>": 4143,
    "haute</w>": 4144,
    "act</w>": 4145,
    "alter": 4146,
    "suffi": 4147,
    "employeur</w>": 4148,
    "importante</w>": 4149,
    "coll</w>": 4150,
    "emment</w>": 4151,
    "avantages</w>": 4152,
    "garantir</w>": 4153,
    "visant</w>": 4154,
    "rq": 4155,
    "cime</w>": 4156,
    "intéressé</w>": 4157,
    "jugée</w>": 4158,
    "vrai</w>": 4159,
    "délégu": 4160,
    "liés</w>": 4161,
    "nat</w>": 4162,
    "bibli": 4163,
    "isent</w>": 4164,
    "portent</w>": 4165,
    "89": 4166,
    "bert</w>": 4167,
    "possession</w>": 4168,
    "commer</w>": 4169,
    "parta": 4170,
    "défend": 4171,
    "ton": 4172,
    "conjoint</w>": 4173,
    "1978</w>": 4174,
    "plo": 4175,
    "séparation</w>": 4176,
    "préhen": 4177,
    "aud</w>": 4178,
    "psycho": 4179,
    "corpor": 4180,
    "112</w>": 4181,
    "entend</w>": 4182,
    "tuel</w>": 4183,
    "mement</w>": 4184,
    "nt</w>": 4185,
    "tenues</w>": 4186,
    "expertise</w>": 4187,
    "uniforme</w>": 4188,
    "global</w>": 4189,
    "ctoire</w>": 4190,
    "règlements</w>": 4191,
    "retenue</w>": 4192,
    "constituant</w>": 4193,
    "procès_verb": 4194,
    "établie</w>": 4195,
    "occupation</w>": 4196,
    "127": 4197,
    "mécanisme</w>": 4198,
    "demeu": 4199,
    "effor": 4200,
    "ce_": 4201,
    "impact</w>": 4202,
    "pi</w>": 4203,
    "ction": 4204,
    "résidence</w>": 4205,
    "dition</w>": 4206,
    "locale</w>": 4207,
    "lièrement</w>": 4208,
    "transpar": 4209,
    "révé": 4210,
    "ceux_ci</w>": 4211,
    "ites</w>": 4212,
    "hiérarch": 4213,
    "violence</w>": 4214,
    "rup": 4215,
    "tirer</w>": 4216,
    "préciser</w>": 4217,
    "importe</w>": 4218,
    "déterminé</w>": 4219,
    "om</w>": 4220,
    "encontre</w>": 4221,
    "électronique</w>": 4222,
    "difficulté</w>": 4223,
    "crédits</w>": 4224,
    "sait</w>": 4225,
    "issait</w>": 4226,
    "derniers</w>": 4227,
    "cy": 4228,
    "diploma": 4229,
    "éré</w>": 4230,
    "communautés</w>": 4231,
    "conséquent</w>": 4232,
    "permettent</w>": 4233,
    "pho": 4234,
    "aj</w>": 4235,
    "liées</w>": 4236,
    "facili": 4237,
    "indemnisation</w>": 4238,
    "que": 4239,
    "uniquement</w>": 4240,
    "solida": 4241,
    "m05": 4242,
    "mme</w>": 4243,
    "gri": 4244,
    "prestation</w>": 4245,
    "prononcer</w>": 4246,
    "dénon": 4247,
    "élabor": 4248,
    "modifié</w>": 4249,
    "assuré</w>": 4250,
    "contin": 4251,
    "gre": 4252,
    "répartition</w>": 4253,
    "dérou": 4254,
    "144": 4255,
    "ld</w>": 4256,
    "500</w>": 4257,
    "m10": 4258,
    "retrait</w>": 4259,
    "maîtr": 4260,
    "naturel</w>": 4261,
    "tx": 4262,
    "seuls</w>": 4263,
    "hon": 4264,
    "précisément</w>": 4265,
    "z_": 4266,
    "mentionnées</w>": 4267,
    "m03": 4268,
    "gs</w>": 4269,
    "mémoire</w>": 4270,
    "131</w>": 4271,
    "sud</w>": 4272,
    "conférence</w>": 4273,
    "sal": 4274,
    "expérience</w>": 4275,
    "moderne</w>": 4276,
    "discours</w>": 4277,
    "prélè": 4278,
    "hou": 4279,
    "naturelles</w>": 4280,
    "évé": 4281,
    "opport": 4282,
    "mat": 4283,
    "substanti": 4284,
    "sav": 4285,
    "principale</w>": 4286,
    "126": 4287,
    "haut</w>": 4288,
    "erait</w>": 4289,
    "témoi": 4290,
    "édition</w>": 4291,
    "entendu</w>": 4292,
    "humaine</w>": 4293,
    "certifica": 4294,
    "appui</w>": 4295,
    "œuvres</w>": 4296,
    "sor</w>": 4297,
    "fixées</w>": 4298,
    "collectivité</w>": 4299,
    "bas</w>": 4300,
    "norme</w>": 4301,
    "ding</w>": 4302,
    "considérée</w>": 4303,
    "essa": 4304,
    "comprom": 4305,
    "encadr": 4306,
    "exceptions</w>": 4307,
    "atement</w>": 4308,
    "fraude</w>": 4309,
    "devra</w>": 4310,
    "formule</w>": 4311,
    "totale</w>": 4312,
    "cipa": 4313,
    "séri": 4314,
    "cles</w>": 4315,
    "transmission</w>": 4316,
    "forê": 4317,
    "ède</w>": 4318,
    "rédi": 4319,
    "chant</w>": 4320,
    "clairement</w>": 4321,
    "tchad</w>": 4322,
    "geant</w>": 4323,
    "éman": 4324,
    "ards</w>": 4325,
    "option</w>": 4326,
    "longtemps</w>": 4327,
    "ultéri": 4328,
    "tempora": 4329,
    "responsables</w>": 4330,
    "fiés</w>": 4331,
    "tra</w>": 4332,
    "congolais</w>": 4333,
    "ke</w>": 4334,
    "minimum</w>": 4335,
    "recherches</w>": 4336,
    "dq": 4337,
    "forces</w>": 4338,
    "tis</w>": 4339,
    "délits</w>": 4340,
    "mentionnés</w>": 4341,
    "auté</w>": 4342,
    "85": 4343,
    "précis</w>": 4344,
    "mondiale</w>": 4345,
    "ordonn": 4346,
    "lementaire</w>": 4347,
    "adjudi": 4348,
    "cide</w>": 4349,
    "nage</w>": 4350,
    "mich": 4351,
    "saisine</w>": 4352,
    "octro": 4353,
    "considérer</w>": 4354,
    "fondé</w>": 4355,
    "monsieur</w>": 4356,
    "organisme</w>": 4357,
    "1975</w>": 4358,
    "celles_": 4359,
    "ko</w>": 4360,
    "habitation</w>": 4361,
    "auth": 4362,
    "considération</w>": 4363,
    "sco": 4364,
    "chée</w>": 4365,
    "ailleur</w>": 4366,
    "mention</w>": 4367,
    "od</w>": 4368,
    "sionnaire</w>": 4369,
    "essentiellement</w>": 4370,
    "entraîne</w>": 4371,
    "concept</w>": 4372,
    "ête</w>": 4373,
    "chets</w>": 4374,
    "réaliser</w>": 4375,
    "étendue</w>": 4376,
    "précité</w>": 4377,
    "intervenir</w>": 4378,
    "cteur</w>": 4379,
    "partis</w>": 4380,
    "circulation</w>": 4381,
    "_</w>": 4382,
    "thi": 4383,
    "environnementa": 4384,
    "régional</w>": 4385,
    "faible</w>": 4386,
    "1970</w>": 4387,
    "autour</w>": 4388,
    "celles_ci</w>": 4389,
    "193</w>": 4390,
    "sénég": 4391,
    "insuffis": 4392,
    "fréqu": 4393,
    "retour</w>": 4394,
    "entale</w>": 4395,
    "commissaire</w>": 4396,
    "procédé</w>": 4397,
    "rédu": 4398,
    "orer</w>": 4399,
    "particip": 4400,
    "gab": 4401,
    "xe</w>": 4402,
    "produire</w>": 4403,
    "rend": 4404,
    "présom": 4405,
    "subjec": 4406,
    "entes</w>": 4407,
    "méthodes</w>": 4408,
    "conque</w>": 4409,
    "rich": 4410,
    "fronti": 4411,
    "spéc</w>": 4412,
    "amor": 4413,
    "causes</w>": 4414,
    "arbitre</w>": 4415,
    "heur": 4416,
    "cfa</w>": 4417,
    "consultation</w>": 4418,
    "confiance</w>": 4419,
    "gouvernance</w>": 4420,
    "max": 4421,
    "rx": 4422,
    "iden": 4423,
    "visés</w>": 4424,
    "calcul</w>": 4425,
    "provo": 4426,
    "lus</w>": 4427,
    "sénégal</w>": 4428,
    "idées</w>": 4429,
    "sations</w>": 4430,
    "consenti": 4431,
    "coût</w>": 4432,
    "ains</w>": 4433,
    "iment</w>": 4434,
    "conservation</w>": 4435,
    "jf</w>": 4436,
    "solidarité</w>": 4437,
    "bénéficier</w>": 4438,
    "fru": 4439,
    "bro": 4440,
    "échange</w>": 4441,
    "rendue</w>": 4442,
    "fiscaux</w>": 4443,
    "dh</w>": 4444,
    "envers</w>": 4445,
    "observation</w>": 4446,
    "excès</w>": 4447,
    "cabin": 4448,
    "élection</w>": 4449,
    "éner": 4450,
    "habili": 4451,
    "royal</w>": 4452,
    "jo</w>": 4453,
    "maladie</w>": 4454,
    "libéra": 4455,
    "ori</w>": 4456,
    "prin": 4457,
    "cédant</w>": 4458,
    "consommateurs</w>": 4459,
    "déri": 4460,
    "définitive</w>": 4461,
    "créé</w>": 4462,
    "mai": 4463,
    "_n": 4464,
    "prévention</w>": 4465,
    "égale</w>": 4466,
    "conseils</w>": 4467,
    "vois": 4468,
    "coû": 4469,
    "cess": 4470,
    "prenant</w>": 4471,
    "sex": 4472,
    "estime</w>": 4473,
    "compagni": 4474,
    "assujet": 4475,
    "honn": 4476,
    "mach": 4477,
    "conver": 4478,
    "ruption</w>": 4479,
    "gener": 4480,
    "explique</w>": 4481,
    "déclarations</w>": 4482,
    "supérieure</w>": 4483,
    "m1": 4484,
    "mali</w>": 4485,
    "isé</w>": 4486,
    "agriculture</w>": 4487,
    "mandataire</w>": 4488,
    "ns</w>": 4489,
    "dente</w>": 4490,
    "ber</w>": 4491,
    "immédiatement</w>": 4492,
    "recevoir</w>": 4493,
    "vérité</w>": 4494,
    "oa</w>": 4495,
    "vage</w>": 4496,
    "promotion</w>": 4497,
    "listes</w>": 4498,
    "èles</w>": 4499,
    "liser</w>": 4500,
    "gratu": 4501,
    "rétro": 4502,
    "22": 4503,
    "ace</w>": 4504,
    "fal": 4505,
    "moral</w>": 4506,
    "that</w>": 4507,
    "min</w>": 4508,
    "étrangère</w>": 4509,
    "expiration</w>": 4510,
    "1979</w>": 4511,
    "chacune</w>": 4512,
    "utiliser</w>": 4513,
    "départ</w>": 4514,
    "north</w>": 4515,
    "répression</w>": 4516,
    "adresse</w>": 4517,
    "décri": 4518,
    "gm": 4519,
    "certes</w>": 4520,
    "supprim": 4521,
    "sym": 4522,
    "sauvegarde</w>": 4523,
    "acquit": 4524,
    "offres</w>": 4525,
    "législative</w>": 4526,
    "risation</w>": 4527,
    "principalement</w>": 4528,
    "mélan": 4529,
    "proto": 4530,
    "installa": 4531,
    "légales</w>": 4532,
    "1580": 4533,
    "équival": 4534,
    "élections</w>": 4535,
    "amend": 4536,
    "tandis</w>": 4537,
    "101</w>": 4538,
    "perspective</w>": 4539,
    "cec": 4540,
    "ess</w>": 4541,
    "ège</w>": 4542,
    "simi": 4543,
    "proche</w>": 4544,
    "régulièrement</w>": 4545,
    "immobilier</w>": 4546,
    "coupa": 4547,
    "remboursement</w>": 4548,
    "acheteur</w>": 4549,
    "découver": 4550,
    "potenti": 4551,
    "107</w>": 4552,
    "heures</w>": 4553,
    "constitué</w>": 4554,
    "fourniss": 4555,
    "théori": 4556,
    "annon": 4557,
    "ka</w>": 4558,
    "lgd": 4559,
    "contestation</w>": 4560,
    "pauv": 4561,
    "indique</w>": 4562,
    "signé</w>": 4563,
    "instrument</w>": 4564,
    "m04": 4565,
    "réelle</w>": 4566,
    "prennent</w>": 4567,
    "attes": 4568,
    "étrangères</w>": 4569,
    "tatif</w>": 4570,
    "bi</w>": 4571,
    "na</w>": 4572,
    "médec": 4573,
    "réglementaires</w>": 4574,
    "co_": 4575,
    "déchets</w>": 4576,
    "impéra": 4577,
    "courant</w>": 4578,
    "burkina</w>": 4579,
    "numéro</w>": 4580,
    "figure</w>": 4581,
    "davantage</w>": 4582,
    "sac": 4583,
    "nul</w>": 4584,
    "ète</w>": 4585,
    "intermédiaire</w>": 4586,
    "considère</w>": 4587,
    "voit</w>": 4588,
    "statis": 4589,
    "parer</w>": 4590,
    "ental</w>": 4591,
    "vaut</w>": 4592,
    "97": 4593,
    "ivoire</w>": 4594,
    "lgdj</w>": 4595,
    "distinguer</w>": 4596,
    "méri": 4597,
    "hypothèses</w>": 4598,
    "sché": 4599,
    "occi": 4600,
    "tié</w>": 4601,
    "limité</w>": 4602,
    "département</w>": 4603,
    "introdu": 4604,
    "reprise</w>": 4605,
    "installation</w>": 4606,
    "sélec": 4607,
    "professeur</w>": 4608,
    "ate</w>": 4609,
    "tissement</w>": 4610,
    "terrains</w>": 4611,
    "sis": 4612,
    "pp": 4613,
    "agne</w>": 4614,
    "liens</w>": 4615,
    "expor": 4616,
    "éducation</w>": 4617,
    "individuelle</w>": 4618,
    "dites</w>": 4619,
    "installations</w>": 4620,
    "défini</w>": 4621,
    "parlementaire</w>": 4622,
    "placement</w>": 4623,
    "présu": 4624,
    "incom": 4625,
    "acceptation</w>": 4626,
    "reconnu</w>": 4627,
    "1960</w>": 4628,
    "jp</w>": 4629,
    "132</w>": 4630,
    "privilégi": 4631,
    "groupement</w>": 4632,
    "alités</w>": 4633,
    "cs": 4634,
    "privées</w>": 4635,
    "seraient</w>": 4636,
    "désignation</w>": 4637,
    "mas</w>": 4638,
    "célé": 4639,
    "statuer</w>": 4640,
    "gl": 4641,
    "gens</w>": 4642,
    "municipa": 4643,
    "dits</w>": 4644,
    "cht": 4645,
    "accident</w>": 4646,
    "wa": 4647,
    "cahi": 4648,
    "gp": 4649,
    "privés</w>": 4650,
    "rante</w>": 4651,
    "her": 4652,
    "assureur</w>": 4653,
    "côte</w>": 4654,
    "ef</w>": 4655,
    "commissions</w>": 4656,
    "appelle</w>": 4657,
    "recevabilité</w>": 4658,
    "actifs</w>": 4659,
    "123</w>": 4660,
    "889": 4661,
    "danger": 4662,
    "ciel</w>": 4663,
    "rdc</w>": 4664,
    "company</w>": 4665,
    "cier</w>": 4666,
    "m02": 4667,
    "programmes</w>": 4668,
    "électo": 4669,
    "fisc</w>": 4670,
    "south</w>": 4671,
    "débats</w>": 4672,
    "main</w>": 4673,
    "consommateur</w>": 4674,
    "251</w>": 4675,
    "parler</w>": 4676,
    "artifici": 4677,
    "ordination</w>": 4678,
    "renvoi</w>": 4679,
    "désigne</w>": 4680,
    "tionnellement</w>": 4681,
    "concr": 4682,
    "signifie</w>": 4683,
    "im</w>": 4684,
    "conciliation</w>": 4685,
    "différends</w>": 4686,
    "class": 4687,
    "150</w>": 4688,
    "clo": 4689,
    "contractant</w>": 4690,
    "225</w>": 4691,
    "visée</w>": 4692,
    "classique</w>": 4693,
    "dem</w>": 4694,
    "extension</w>": 4695,
    "tim": 4696,
    "can</w>": 4697,
    "new</w>": 4698,
    "communautaires</w>": 4699,
    "déten": 4700,
    "conscience</w>": 4701,
    "principaux</w>": 4702,
    "fas": 4703,
    "consoli": 4704,
    "engager</w>": 4705,
    "stan": 4706,
    "fe": 4707,
    "accue": 4708,
    "objets</w>": 4709,
    "historique</w>": 4710,
    "école</w>": 4711,
    "précitée</w>": 4712,
    "assiette</w>": 4713,
    "inement</w>": 4714,
    "suspension</w>": 4715,
    "vain": 4716,
    "africain</w>": 4717,
    "combin": 4718,
    "trouvent</w>": 4719,
    "préserv": 4720,
    "indispen": 4721,
    "let</w>": 4722,
    "concernés</w>": 4723,
    "facteurs</w>": 4724,
    "œur</w>": 4725,
    "pério": 4726,
    "tariat</w>": 4727,
    "délégation</w>": 4728,
    "169</w>": 4729,
    "pd": 4730,
    "faites</w>": 4731,
    "suffit</w>": 4732,
    "chris": 4733,
    "visées</w>": 4734,
    "grave</w>": 4735,
    "dernières</w>": 4736,
    "cie</w>": 4737,
    "eth": 4738,
    "spéciale</w>": 4739,
    "langue</w>": 4740,
    "effectivement</w>": 4741,
    "cultur": 4742,
    "exonération</w>": 4743,
    "dul": 4744,
    "vice</w>": 4745,
    "publié</w>": 4746,
    "vii</w>": 4747,
    "pol": 4748,
    "limiter</w>": 4749,
    "réservés</w>": 4750,
    "privilè": 4751,
    "postéri": 4752,
    "obstacle</w>": 4753,
    "habitu": 4754,
    "o_": 4755,
    "45": 4756,
    "ceci</w>": 4757,
    "endra</w>": 4758,
    "111</w>": 4759,
    "philosophie</w>": 4760,
    "encou": 4761,
    "chois": 4762,
    "premières</w>": 4763,
    "prononcée</w>": 4764,
    "gaz</w>": 4765,
    "agence</w>": 4766,
    "apport</w>": 4767,
    "inno": 4768,
    "clients</w>": 4769,
    "t_elle</w>": 4770,
    "lire</w>": 4771,
    "cumu": 4772,
    "trent</w>": 4773,
    "graves</w>": 4774,
    "risme</w>": 4775,
    "uem": 4776,
    "armes</w>": 4777,
    "premiers</w>": 4778,
    "cherch": 4779,
    "laise</w>": 4780,
    "ppe</w>": 4781,
    "harmonisation</w>": 4782,
    "délivrance</w>": 4783,
    "civiles</w>": 4784,
    "accompagn": 4785,
    "cj</w>": 4786,
    "parition</w>": 4787,
    "cts</w>": 4788,
    "lour": 4789,
    "revendi": 4790,
    "conduire</w>": 4791,
    "écrite</w>": 4792,
    "penser</w>": 4793,
    "relèvent</w>": 4794,
    "contrainte</w>": 4795,
    "commentaire</w>": 4796,
    "abi": 4797,
    "avenir</w>": 4798,
    "décide</w>": 4799,
    "voix</w>": 4800,
    "réseaux</w>": 4801,
    "positif</w>": 4802,
    "transformation</w>": 4803,
    "lau": 4804,
    "invi": 4805,
    "221</w>": 4806,
    "ane</w>": 4807,
    "médica": 4808,
    "exige</w>": 4809,
    "définir</w>": 4810,
    "rév": 4811,
    "exemples</w>": 4812,
    "ration": 4813,
    "phénomène</w>": 4814,
    "décentralisation</w>": 4815,
    "mineur</w>": 4816,
    "officier</w>": 4817,
    "105</w>": 4818,
    "plura": 4819,
    "propriétaires</w>": 4820,
    "michel</w>": 4821,
    "juger</w>": 4822,
    "associations</w>": 4823,
    "louis</w>": 4824,
    "inspi": 4825,
    "absolue</w>": 4826,
    "exclusivement</w>": 4827,
    "rupture</w>": 4828,
    "net": 4829,
    "légitimité</w>": 4830,
    "héritiers</w>": 4831,
    "allemagne</w>": 4832,
    "roga": 4833,
    "durant</w>": 4834,
    "régionale</w>": 4835,
    "raisonnable</w>": 4836,
    "mix": 4837,
    "géograph": 4838,
    "précédent</w>": 4839,
    "exac": 4840,
    "utilisé</w>": 4841,
    "vont</w>": 4842,
    "ènes</w>": 4843,
    "humanité</w>": 4844,
    "hô": 4845,
    "réunion</w>": 4846,
    "genre</w>": 4847,
    "bilan</w>": 4848,
    "sol</w>": 4849,
    "grè": 4850,
    "concernées</w>": 4851,
    "portées</w>": 4852,
    "procès_verbal</w>": 4853,
    "alterna": 4854,
    "reconnaître</w>": 4855,
    "européennes</w>": 4856,
    "image</w>": 4857,
    "161</w>": 4858,
    "coopéra": 4859,
    "royau": 4860,
    "uemoa</w>": 4861,
    "bio": 4862,
    "plus_": 4863,
    "arbitral</w>": 4864,
    "tonn": 4865,
    "présomption</w>": 4866,
    "pê": 4867,
    "tiennent</w>": 4868,
    "nis": 4869,
    "gou": 4870,
    "manag": 4871,
    "constater</w>": 4872,
    "multipli": 4873,
    "1972</w>": 4874,
    "cabinet</w>": 4875,
    "extrê": 4876,
    "2015": 4877,
    "collectif</w>": 4878,
    "méta": 4879,
    "tisme</w>": 4880,
    "tâ": 4881,
    "fournir</w>": 4882,
    "dait</w>": 4883,
    "oration</w>": 4884,
    "m08": 4885,
    "révolution</w>": 4886,
    "stratégie</w>": 4887,
    "artisan": 4888,
    "correspond</w>": 4889,
    "torat</w>": 4890,
    "cessation</w>": 4891,
    "plus_valu": 4892,
    "intellectuelle</w>": 4893,
    "recevable</w>": 4894,
    "renseignements</w>": 4895,
    "lecture</w>": 4896,
    "attention</w>": 4897,
    "coloni": 4898,
    "principales</w>": 4899,
    "stock": 4900,
    "125</w>": 4901,
    "clô": 4902,
    "identification</w>": 4903,
    "1958</w>": 4904,
    "transparence</w>": 4905,
    "chiffre</w>": 4906,
    "capitaux</w>": 4907,
    "seuil</w>": 4908,
    "passage</w>": 4909,
    "peut_être</w>": 4910,
    "pés</w>": 4911,
    "législatif</w>": 4912,
    "émer": 4913,
    "bo</w>": 4914,
    "fre": 4915,
    "stratégi": 4916,
    "préroga": 4917,
    "purement</w>": 4918,
    "secrétariat</w>": 4919,
    "périmè": 4920,
    "1977</w>": 4921,
    "éco": 4922,
    "1974</w>": 4923,
    "quinze</w>": 4924,
    "successi": 4925,
    "repose</w>": 4926,
    "dations</w>": 4927,
    "définit</w>": 4928,
    "aller</w>": 4929,
    "citoyen</w>": 4930,
    "fla": 4931,
    "ki": 4932,
    "quoti": 4933,
    "logement</w>": 4934,
    "acquér": 4935,
    "forte</w>": 4936,
    "démarche</w>": 4937,
    "petit</w>": 4938,
    "sa</w>": 4939,
    "faso</w>": 4940,
    "hésion</w>": 4941,
    "décider</w>": 4942,
    "augmen": 4943,
    "lin</w>": 4944,
    "approuv": 4945,
    "affi": 4946,
    "orientation</w>": 4947,
    "ouvrages</w>": 4948,
    "dettes</w>": 4949,
    "ctive</w>": 4950,
    "personnelles</w>": 4951,
    "concerné</w>": 4952,
    "prononcé</w>": 4953,
    "gal</w>": 4954,
    "substances</w>": 4955,
    "impossible</w>": 4956,
    "assure</w>": 4957,
    "confron": 4958,
    "huit</w>": 4959,
    "chargée</w>": 4960,
    "efficace</w>": 4961,
    "commande</w>": 4962,
    "manque</w>": 4963,
    "matiques</w>": 4964,
    "intelligence</w>": 4965,
    "dial": 4966,
    "plate": 4967,
    "candidats</w>": 4968,
    "revê": 4969,
    "disciplin": 4970,
    "définies</w>": 4971,
    "bation</w>": 4972,
    "ere</w>": 4973,
    "nie</w>": 4974,
    "dimension</w>": 4975,
    "conta": 4976,
    "diversité</w>": 4977,
    "industrie</w>": 4978,
    "dieu</w>": 4979,
    "traits</w>": 4980,
    "intégra": 4981,
    "phone</w>": 4982,
    "nucléaire</w>": 4983,
    "défici": 4984,
    "dépu": 4985,
    "apprécier</w>": 4986,
    "armée</w>": 4987,
    "org</w>": 4988,
    "appliquent</w>": 4989,
    "ama": 4990,
    "civils</w>": 4991,
    "préval": 4992,
    "faci": 4993,
    "cjce</w>": 4994,
    "paul</w>": 4995,
    "pourraient</w>": 4996,
    "modifier</w>": 4997,
    "hv</w>": 4998,
    "dési": 4999,
    "restre": 5000,
    "access": 5001,
    "concernée</w>": 5002,
    "régularité</w>": 5003,
    "rome</w>": 5004,
    "administrations</w>": 5005,
    "1973</w>": 5006,
    "pension</w>": 5007,
    "rapp": 5008,
    "ae</w>": 5009,
    "dy</w>": 5010,
    "récu": 5011,
    "inois</w>": 5012,
    "parle</w>": 5013,
    "presque</w>": 5014,
    "fri": 5015,
    "inter</w>": 5016,
    "puf</w>": 5017,
    "institut</w>": 5018,
    "engage</w>": 5019,
    "réflexion</w>": 5020,
    "plans</w>": 5021,
    "ms</w>": 5022,
    "transactions</w>": 5023,
    "électri": 5024,
    "mineurs</w>": 5025,
    "enjeux</w>": 5026,
    "mant</w>": 5027,
    "résili": 5028,
    "préfet</w>": 5029,
    "og": 5030,
    "prévoy": 5031,
    "stu": 5032,
    "négociation</w>": 5033,
    "correspondant</w>": 5034,
    "saint_": 5035,
    "phar": 5036,
    "traduit</w>": 5037,
    "échap": 5038,
    "pacte</w>": 5039,
    "revient</w>": 5040,
    "inspec": 5041,
    "en_": 5042,
    "éventuellement</w>": 5043,
    "série</w>": 5044,
    "quat": 5045,
    "imposer</w>": 5046,
    "lisée</w>": 5047,
    "superfici": 5048,
    "distingue</w>": 5049,
    "voient</w>": 5050,
    "déduction</w>": 5051,
    "augmentation</w>": 5052,
    "résis": 5053,
    "exécuter</w>": 5054,
    "régionales</w>": 5055,
    "forêts</w>": 5056,
    "via</w>": 5057,
    "has": 5058,
    "instau": 5059,
    "diffusion</w>": 5060,
    "mettant</w>": 5061,
    "ol": 5062,
    "nant</w>": 5063,
    "soumettre</w>": 5064,
    "effective</w>": 5065,
    "volontaire</w>": 5066,
    "phili": 5067,
    "brev": 5068,
    "autonome</w>": 5069,
    "ajda</w>": 5070,
    "moi</w>": 5071,
    "rurales</w>": 5072,
    "avance</w>": 5073,
    "écou": 5074,
    "fixant</w>": 5075,
    "96": 5076,
    "enseignement</w>": 5077,
    "aliste</w>": 5078,
    "flu": 5079,
    "pauvreté</w>": 5080,
    "espaces</w>": 5081,
    "124</w>": 5082,
    "ts": 5083,
    "stabilité</w>": 5084,
    "soulev": 5085,
    "législatives</w>": 5086,
    "montre</w>": 5087,
    "filiation</w>": 5088,
    "humain</w>": 5089,
    "nommé</w>": 5090,
    "rables</w>": 5091,
    "échelle</w>": 5092,
    "usages</w>": 5093,
    "gmail</w>": 5094,
    "cy</w>": 5095,
    "atteintes</w>": 5096,
    "redres": 5097,
    "disponible</w>": 5098,
    "ha</w>": 5099,
    "gouvernementa": 5100,
    "ordres</w>": 5101,
    "totalité</w>": 5102,
    "décidé</w>": 5103,
    "poste</w>": 5104,
    "appartenant</w>": 5105,
    "nouvel</w>": 5106,
    "abou": 5107,
    "ron</w>": 5108,
    "joue</w>": 5109,
    "construire</w>": 5110,
    "130</w>": 5111,
    "mélanges</w>": 5112,
    "trices</w>": 5113,
    "consacré</w>": 5114,
    "ennem": 5115,
    "futu": 5116,
    "tatives</w>": 5117,
    "belge</w>": 5118,
    "proven": 5119,
    "industrielle</w>": 5120,
    "tradition</w>": 5121,
    "202</w>": 5122,
    "soins</w>": 5123,
    "résu": 5124,
    "1968</w>": 5125,
    "prévisi": 5126,
    "mauva": 5127,
    "kou": 5128,
    "mono": 5129,
    "55": 5130,
    "my": 5131,
    "opposer</w>": 5132,
    "ctif</w>": 5133,
    "soutien</w>": 5134,
    "évidemment</w>": 5135,
    "seules</w>": 5136,
    "ouverte</w>": 5137,
    "étr": 5138,
    "entités</w>": 5139,
    "provin": 5140,
    "rurale</w>": 5141,
    "presta": 5142,
    "occid": 5143,
    "camero": 5144,
    "illus": 5145,
    "adjudica": 5146,
    "cre": 5147,
    "central</w>": 5148,
    "dépend</w>": 5149,
    "actionnaires</w>": 5150,
    "protocole</w>": 5151,
    "joint</w>": 5152,
    "exoné": 5153,
    "maximum</w>": 5154,
    "contribuables</w>": 5155,
    "vée</w>": 5156,
    "jacques</w>": 5157,
    "inscrit</w>": 5158,
    "élar": 5159,
    "vérification</w>": 5160,
    "alimentaire</w>": 5161,
    "déclaré</w>": 5162,
    "affectation</w>": 5163,
    "exercices</w>": 5164,
    "ci_après</w>": 5165,
    "complexe</w>": 5166,
    "liée</w>": 5167,
    "informatique</w>": 5168,
    "importantes</w>": 5169,
    "régions</w>": 5170,
    "réserves</w>": 5171,
    "érir</w>": 5172,
    "annuel</w>": 5173,
    "manifeste</w>": 5174,
    "certificat</w>": 5175,
    "bois</w>": 5176,
    "prolon": 5177,
    "témoins</w>": 5178,
    "tendance</w>": 5179,
    "inexécution</w>": 5180,
    "douani": 5181,
    "participer</w>": 5182,
    "ladite</w>": 5183,
    "comptabilité</w>": 5184,
    "faux</w>": 5185,
    "coupable</w>": 5186,
    "trésor</w>": 5187,
    "indemni": 5188,
    "preuves</w>": 5189,
    "érer</w>": 5190,
    "relativement</w>": 5191,
    "44": 5192,
    "za": 5193,
    "gers</w>": 5194,
    "défendeur</w>": 5195,
    "entrepreneur</w>": 5196,
    "209</w>": 5197,
    "transition</w>": 5198,
    "servir</w>": 5199,
    "110</w>": 5200,
    "jouissance</w>": 5201,
    "204</w>": 5202,
    "108</w>": 5203,
    "détermine</w>": 5204,
    "noms</w>": 5205,
    "salaires</w>": 5206,
    "devenu</w>": 5207,
    "sortie</w>": 5208,
    "bulle": 5209,
    "rs": 5210,
    "jeunes</w>": 5211,
    "diminu": 5212,
    "intégrité</w>": 5213,
    "ony": 5214,
    "bal": 5215,
    "experts</w>": 5216,
    "administrateur</w>": 5217,
    "niger</w>": 5218,
    "personnels</w>": 5219,
    "orable</w>": 5220,
    "est_il</w>": 5221,
    "prévenu</w>": 5222,
    "accessi": 5223,
    "stration</w>": 5224,
    "tiré</w>": 5225,
    "1976</w>": 5226,
    "belgique</w>": 5227,
    "maritime</w>": 5228,
    "retraite</w>": 5229,
    "titulaires</w>": 5230,
    "cameroon</w>": 5231,
    "approbation</w>": 5232,
    "logies</w>": 5233,
    "transaction</w>": 5234,
    "promesse</w>": 5235,
    "ordonner</w>": 5236,
    "internes</w>": 5237,
    "rejet</w>": 5238,
    "tau": 5239,
    "hydro": 5240,
    "sous_trai": 5241,
    "exploitant</w>": 5242,
    "tons</w>": 5243,
    "104</w>": 5244,
    "propositions</w>": 5245,
    "cu</w>": 5246,
    "veiller</w>": 5247,
    "gravité</w>": 5248,
    "adoptée</w>": 5249,
    "mari</w>": 5250,
    "inverse</w>": 5251,
    "145</w>": 5252,
    "notions</w>": 5253,
    "anglais</w>": 5254,
    "contrairement</w>": 5255,
    "recti": 5256,
    "232</w>": 5257,
    "matériels</w>": 5258,
    "utilisés</w>": 5259,
    "illicite</w>": 5260,
    "male</w>": 5261,
    "clas": 5262,
    "dig": 5263,
    "danger</w>": 5264,
    "réformes</w>": 5265,
    "tête</w>": 5266,
    "retard</w>": 5267,
    "vos</w>": 5268,
    "étatique</w>": 5269,
    "appelé</w>": 5270,
    "meill": 5271,
    "énumé": 5272,
    "far": 5273,
    "vis_": 5274,
    "manuel</w>": 5275,
    "imagin": 5276,
    "totalement</w>": 5277,
    "pée</w>": 5278,
    "compensation</w>": 5279,
    "206</w>": 5280,
    "taient</w>": 5281,
    "fixée</w>": 5282,
    "professionnelles</w>": 5283,
    "minière</w>": 5284,
    "300</w>": 5285,
    "fiche</w>": 5286,
    "réduire</w>": 5287,
    "cju": 5288,
    "modèles</w>": 5289,
    "lebon</w>": 5290,
    "importants</w>": 5291,
    "constitutionnelles</w>": 5292,
    "laisse</w>": 5293,
    "vérifier</w>": 5294,
    "représente</w>": 5295,
    "témo": 5296,
    "entité</w>": 5297,
    "ic</w>": 5298,
    "majeure</w>": 5299,
    "van</w>": 5300,
    "lié</w>": 5301,
    "cohér": 5302,
    "lt</w>": 5303,
    "feu": 5304,
    "auxquels</w>": 5305,
    "109</w>": 5306,
    "justifie</w>": 5307,
    "ais": 5308,
    "gy</w>": 5309,
    "significa": 5310,
    "de_": 5311,
    "délib": 5312,
    "directions</w>": 5313,
    "dégag": 5314,
    "suivre</w>": 5315,
    "carte</w>": 5316,
    "équitable</w>": 5317,
    "à_vis</w>": 5318,
    "cn": 5319,
    "souff": 5320,
    "parlementaires</w>": 5321,
    "perpé": 5322,
    "moitié</w>": 5323,
    "sous_section</w>": 5324,
    "addi": 5325,
    "1967</w>": 5326,
    "complète</w>": 5327,
    "oirement</w>": 5328,
    "est": 5329,
    "aie</w>": 5330,
    "1959</w>": 5331,
    "litté": 5332,
    "ordinaires</w>": 5333,
    "1964</w>": 5334,
    "cœur</w>": 5335,
    "chr</w>": 5336,
    "mentionnée</w>": 5337,
    "mains</w>": 5338,
    "carbu": 5339,
    "righ": 5340,
    "clôture</w>": 5341,
    "obé": 5342,
    "commerciaux</w>": 5343,
    "entendre</w>": 5344,
    "ajoute</w>": 5345,
    "navire</w>": 5346,
    "cessionnaire</w>": 5347,
    "mentionné</w>": 5348,
    "salaire</w>": 5349,
    "auraient</w>": 5350,
    "lage</w>": 5351,
    "dissolution</w>": 5352,
    "sujets</w>": 5353,
    "ssa": 5354,
    "prohi": 5355,
    "citement</w>": 5356,
    "effectuer</w>": 5357,
    "véhicules</w>": 5358,
    "1969</w>": 5359,
    "sanctionn": 5360,
    "ref_201": 5361,
    "33": 5362,
    "appare": 5363,
    "répres": 5364,
    "locataire</w>": 5365,
    "enquêtes</w>": 5366,
    "volume</w>": 5367,
    "nique</w>": 5368,
    "239</w>": 5369,
    "terrorisme</w>": 5370,
    "examiner</w>": 5371,
    "convi": 5372,
    "menac": 5373,
    "apporter</w>": 5374,
    "alié": 5375,
    "ouvert</w>": 5376,
    "détour": 5377,
    "fi</w>": 5378,
    "valor": 5379,
    "renouvellement</w>": 5380,
    "sexu": 5381,
    "suivante</w>": 5382,
    "partielle</w>": 5383,
    "07": 5384,
    "cjue</w>": 5385,
    "gérant</w>": 5386,
    "outils</w>": 5387,
    "chargés</w>": 5388,
    "ong</w>": 5389,
    "99": 5390,
    "dar": 5391,
    "finalement</w>": 5392,
    "explo": 5393,
    "nois</w>": 5394,
    "sénat</w>": 5395,
    "disposer</w>": 5396,
    "avi": 5397,
    "capacités</w>": 5398,
    "procède</w>": 5399,
    "quelconque</w>": 5400,
    "cend": 5401,
    "allé": 5402,
    "menace</w>": 5403,
    "monn": 5404,
    "auxquelles</w>": 5405,
    "élus</w>": 5406,
    "continue</w>": 5407,
    "trente</w>": 5408,
    "adé": 5409,
    "devenir</w>": 5410,
    "franco": 5411,
    "ray": 5412,
    "tch": 5413,
    "133</w>": 5414,
    "véhicule</w>": 5415,
    "év": 5416,
    "sécurisation</w>": 5417,
    "conclure</w>": 5418,
    "pre": 5419,
    "bac</w>": 5420,
    "défendre</w>": 5421,
    "favorable</w>": 5422,
    "contre_": 5423,
    "connaissances</w>": 5424,
    "1971</w>": 5425,
    "84": 5426,
    "concession</w>": 5427,
    "directives</w>": 5428,
    "humains</w>": 5429,
    "effectif</w>": 5430,
    "utilisée</w>": 5431,
    "anony": 5432,
    "indica": 5433,
    "1962</w>": 5434,
    "ogue</w>": 5435,
    "coo": 5436,
    "ssion</w>": 5437,
    "différend</w>": 5438,
    "matérielle</w>": 5439,
    "retés</w>": 5440,
    "subi</w>": 5441,
    "expert</w>": 5442,
    "généré</w>": 5443,
    "ka": 5444,
    "sites</w>": 5445,
    "ani</w>": 5446,
    "exclusive</w>": 5447,
    "iso": 5448,
    "nements</w>": 5449,
    "demandé</w>": 5450,
    "causé</w>": 5451,
    "114</w>": 5452,
    "déclarer</w>": 5453,
    "coordination</w>": 5454,
    "réalisée</w>": 5455,
    "destinés</w>": 5456,
    "épar": 5457,
    "progrès</w>": 5458,
    "suffisamment</w>": 5459,
    "classe</w>": 5460,
    "désigné</w>": 5461,
    "inform": 5462,
    "poursuivre</w>": 5463,
    "tablement</w>": 5464,
    "précision</w>": 5465,
    "accro": 5466,
    "transfé": 5467,
    "contradictoire</w>": 5468,
    "problé": 5469,
    "nent</w>": 5470,
    "éth": 5471,
    "travaill": 5472,
    "vis_à_vis</w>": 5473,
    "vo</w>": 5474,
    "din": 5475,
    "exer</w>": 5476,
    "vices</w>": 5477,
    "permanente</w>": 5478,
    "recourir</w>": 5479,
    "comptables</w>": 5480,
    "mestre</w>": 5481,
    "accusation</w>": 5482,
    "énergie</w>": 5483,
    "contro": 5484,
    "vivant</w>": 5485,
    "ze": 5486,
    "bes</w>": 5487,
    "press</w>": 5488,
    "ana</w>": 5489,
    "redressement</w>": 5490,
    "contractuelles</w>": 5491,
    "arbitrale</w>": 5492,
    "renvoie</w>": 5493,
    "ion</w>": 5494,
    "désigner</w>": 5495,
    "regar": 5496,
    "doctorat</w>": 5497,
    "relever</w>": 5498,
    "tome</w>": 5499,
    "symbo": 5500,
    "jeune</w>": 5501,
    "provision</w>": 5502,
    "chem": 5503,
    "hor": 5504,
    "ki</w>": 5505,
    "octroi</w>": 5506,
    "jurisprudenti": 5507,
    "deurs</w>": 5508,
    "suis</w>": 5509,
    "meur": 5510,
    "prospec": 5511,
    "prérogatives</w>": 5512,
    "délictu": 5513,
    "acquéreur</w>": 5514,
    "signification</w>": 5515,
    "yae</w>": 5516,
    "prévoir</w>": 5517,
    "priva": 5518,
    "neutra": 5519,
    "tat</w>": 5520,
    "longue</w>": 5521,
    "poids</w>": 5522,
    "lisé</w>": 5523,
    "délin": 5524,
    "_0": 5525,
    "tisations</w>": 5526,
    "ther</w>": 5527,
    "considérés</w>": 5528,
    "ancienne</w>": 5529,
    "139</w>": 5530,
    "domani": 5531,
    "donnent</w>": 5532,
    "pole</w>": 5533,
    "arch": 5534,
    "coûts</w>": 5535,
    "oritaire</w>": 5536,
    "group</w>": 5537,
    "exigi": 5538,
    "eux_mêmes</w>": 5539,
    "guer": 5540,
    "mauvaise</w>": 5541,
    "signe</w>": 5542,
    "fixer</w>": 5543,
    "agres": 5544,
    "sûretés</w>": 5545,
    "lumi": 5546,
    "honneur</w>": 5547,
    "mettent</w>": 5548,
    "noire</w>": 5549,
    "presses</w>": 5550,
    "intervient</w>": 5551,
    "laisser</w>": 5552,
    "réf": 5553,
    "incrimin": 5554,
    "mez": 5555,
    "juridictionnelle</w>": 5556,
    "capable</w>": 5557,
    "bilisation</w>": 5558,
    "m11": 5559,
    "are</w>": 5560,
    "compagnie</w>": 5561,
    "tairement</w>": 5562,
    "version</w>": 5563,
    "oui</w>": 5564,
    "disposent</w>": 5565,
    "définie</w>": 5566,
    "maîtrise</w>": 5567,
    "120</w>": 5568,
    "pes": 5569,
    "refuser</w>": 5570,
    "xu": 5571,
    "sûr</w>": 5572,
    "législations</w>": 5573,
    "sabilité</w>": 5574,
    "subi": 5575,
    "souverain</w>": 5576,
    "bulletin</w>": 5577,
    "vingt</w>": 5578,
    "tenance</w>": 5579,
    "destina": 5580,
    "cc": 5581,
    "lève</w>": 5582,
    "récipro": 5583,
    "imposable</w>": 5584,
    "modifications</w>": 5585,
    "sie</w>": 5586,
    "faus": 5587,
    "illégalité</w>": 5588,
    "numérique</w>": 5589,
    "sort</w>": 5590,
    "gérer</w>": 5591,
    "167</w>": 5592,
    "directs</w>": 5593,
    "occup": 5594,
    "contrepartie</w>": 5595,
    "prouver</w>": 5596,
    "douane</w>": 5597,
    "lisées</w>": 5598,
    "haus": 5599,
    "pli</w>": 5600,
    "guère</w>": 5601,
    "empire</w>": 5602,
    "ventes</w>": 5603,
    "requé": 5604,
    "constat</w>": 5605,
    "incapacité</w>": 5606,
    "dou</w>": 5607,
    "dépendant</w>": 5608,
    "restent</w>": 5609,
    "bénéficie</w>": 5610,
    "valable</w>": 5611,
    "abouti": 5612,
    "tus</w>": 5613,
    "ff</w>": 5614,
    "comportements</w>": 5615,
    "motivation</w>": 5616,
    "cadres</w>": 5617,
    "ja</w>": 5618,
    "banqui": 5619,
    "bora": 5620,
    "bénéficiaires</w>": 5621,
    "frénois</w>": 5622,
    "vable</w>": 5623,
    "ciens</w>": 5624,
    "fondamentale</w>": 5625,
    "suisse</w>": 5626,
    "prévaloir</w>": 5627,
    "peuples</w>": 5628,
    "librement</w>": 5629,
    "dln</w>": 5630,
    "empêcher</w>": 5631,
    "rente</w>": 5632,
    "discrimination</w>": 5633,
    "defrénois</w>": 5634,
    "ds": 5635,
    "1966</w>": 5636,
    "csi": 5637,
    "prépara": 5638,
    "abilité</w>": 5639,
    "globale</w>": 5640,
    "ution</w>": 5641,
    "puni": 5642,
    "aggra": 5643,
    "contraires</w>": 5644,
    "106</w>": 5645,
    "152</w>": 5646,
    "rass": 5647,
    "exité</w>": 5648,
    "novation</w>": 5649,
    "oirs</w>": 5650,
    "anciens</w>": 5651,
    "chau": 5652,
    "2116": 5653,
    "sivement</w>": 5654,
    "pré</w>": 5655,
    "cotisations</w>": 5656,
    "1ère</w>": 5657,
    "amélioration</w>": 5658,
    "cedh</w>": 5659,
    "accompl": 5660,
    "he</w>": 5661,
    "compétentes</w>": 5662,
    "retenu</w>": 5663,
    "pharma": 5664,
    "réels</w>": 5665,
    "renforcer</w>": 5666,
    "réduit</w>": 5667,
    "renforcement</w>": 5668,
    "bases</w>": 5669,
    "lw": 5670,
    "remettre</w>": 5671,
    "sépa": 5672,
    "dame</w>": 5673,
    "jonction</w>": 5674,
    "legi": 5675,
    "sives</w>": 5676,
    "ténu": 5677,
    "noter</w>": 5678,
    "identifier</w>": 5679,
    "jugements</w>": 5680,
    "aises</w>": 5681,
    "faciliter</w>": 5682,
    "fonde</w>": 5683,
    "surven": 5684,
    "pations</w>": 5685,
    "saint</w>": 5686,
    "esses</w>": 5687,
    "rémuné": 5688,
    "déloy": 5689,
    "gou</w>": 5690,
    "1965</w>": 5691,
    "inférieur</w>": 5692,
    "maison</w>": 5693,
    "retenir</w>": 5694,
    "consen": 5695,
    "constate</w>": 5696,
    "sible</w>": 5697,
    "tradu": 5698,
    "dp</w>": 5699,
    "déducti": 5700,
    "adaptation</w>": 5701,
    "posait</w>": 5702,
    "chent</w>": 5703,
    "1961</w>": 5704,
    "viol": 5705,
    "mezam</w>": 5706,
    "souci</w>": 5707,
    "129</w>": 5708,
    "our</w>": 5709,
    "spéciaux</w>": 5710,
    "religion</w>": 5711,
    "expliquer</w>": 5712,
    "rechercher</w>": 5713,
    "dossiers</w>": 5714,
    "dge</w>": 5715,
    "154</w>": 5716,
    "succès</w>": 5717,
    "lot</w>": 5718,
    "cameroun": 5719,
    "sar": 5720,
    "hol": 5721,
    "destination</w>": 5722,
    "poly": 5723,
    "bâti": 5724,
    "bé</w>": 5725,
    "bourse</w>": 5726,
    "échanges</w>": 5727,
    "oubli": 5728,
    "normalement</w>": 5729,
    "immobilière</w>": 5730,
    "vala": 5731,
    "indispensable</w>": 5732,
    "effectué</w>": 5733,
    "heure</w>": 5734,
    "élevé</w>": 5735,
    "sure</w>": 5736,
    "ur</w>": 5737,
    "tter</w>": 5738,
    "matrimoni": 5739,
    "réalisé</w>": 5740,
    "intitu": 5741,
    "ey</w>": 5742,
    "reconnue</w>": 5743,
    "aspect</w>": 5744,
    "rappro": 5745,
    "verser</w>": 5746,
    "convain": 5747,
    "organiser</w>": 5748,
    "115</w>": 5749,
    "succes": 5750,
    "seurs</w>": 5751,
    "utiles</w>": 5752,
    "traitements</w>": 5753,
    "constituée</w>": 5754,
    "américain</w>": 5755,
    "aison</w>": 5756,
    "miques</w>": 5757,
    "trav</w>": 5758,
    "croissance</w>": 5759,
    "tend</w>": 5760,
    "justici": 5761,
    "forcée</w>": 5762,
    "dol</w>": 5763,
    "bailleur</w>": 5764,
    "265</w>": 5765,
    "schéma</w>": 5766,
    "promul": 5767,
    "limited</w>": 5768,
    "gon": 5769,
    "127</w>": 5770,
    "meubles</w>": 5771,
    "thom": 5772,
    "uns</w>": 5773,
    "patrimoni": 5774,
    "117</w>": 5775,
    "311</w>": 5776,
    "libération</w>": 5777,
    "autocht": 5778,
    "énonce</w>": 5779,
    "particula": 5780,
    "nécessi": 5781,
    "trom": 5782,
    "secteurs</w>": 5783,
    "établis</w>": 5784,
    "blissement</w>": 5785,
    "robert</w>": 5786,
    "marge</w>": 5787,
    "atteindre</w>": 5788,
    "culpa": 5789,
    "améliorer</w>": 5790,
    "ména": 5791,
    "photo": 5792,
    "remis</w>": 5793,
    "maintenir</w>": 5794,
    "isla": 5795,
    "busin": 5796,
    "réuni": 5797,
    "harmat": 5798,
    "primes</w>": 5799,
    "_il</w>": 5800,
    "prévenir</w>": 5801,
    "instances</w>": 5802,
    "récen": 5803,
    "atténu": 5804,
    "réti": 5805,
    "chambres</w>": 5806,
    "mage</w>": 5807,
    "ox": 5808,
    "gas": 5809,
    "by": 5810,
    "raire</w>": 5811,
    "terait</w>": 5812,
    "communs</w>": 5813,
    "résiliation</w>": 5814,
    "équipements</w>": 5815,
    "protég": 5816,
    "multiples</w>": 5817,
    "su</w>": 5818,
    "ève</w>": 5819,
    "mora": 5820,
    "exécutoire</w>": 5821,
    "dies</w>": 5822,
    "daire</w>": 5823,
    "antérieure</w>": 5824,
    "exercé</w>": 5825,
    "médias</w>": 5826,
    "accorder</w>": 5827,
    "minières</w>": 5828,
    "170</w>": 5829,
    "dure</w>": 5830,
    "rfda</w>": 5831,
    "lity</w>": 5832,
    "naturelle</w>": 5833,
    "obtenu</w>": 5834,
    "paiements</w>": 5835,
    "exercée</w>": 5836,
    "oise</w>": 5837,
    "européens</w>": 5838,
    "olo": 5839,
    "définitif</w>": 5840,
    "donnant</w>": 5841,
    "chaî": 5842,
    "sanction": 5843,
    "ler": 5844,
    "couv": 5845,
    "exposé</w>": 5846,
    "traiter</w>": 5847,
    "incon": 5848,
    "carrière</w>": 5849,
    "222</w>": 5850,
    "départem": 5851,
    "constaté</w>": 5852,
    "126</w>": 5853,
    "fil": 5854,
    "étape</w>": 5855,
    "soi</w>": 5856,
    "réalisées</w>": 5857,
    "1963</w>": 5858,
    "manifestement</w>": 5859,
    "territoires</w>": 5860,
    "coutumiers</w>": 5861,
    "sug": 5862,
    "mille</w>": 5863,
    "partenari": 5864,
    "lard</w>": 5865,
    "pasto": 5866,
    "devenue</w>": 5867,
    "dra</w>": 5868,
    "indemnités</w>": 5869,
    "illes</w>": 5870,
    "119</w>": 5871,
    "est_ce</w>": 5872,
    "cède</w>": 5873,
    "sinis": 5874,
    "jus</w>": 5875,
    "242</w>": 5876,
    "me_": 5877,
    "urbaine</w>": 5878,
    "simu": 5879,
    "juridictionnel</w>": 5880,
    "manquement</w>": 5881,
    "lv": 5882,
    "choisir</w>": 5883,
    "crit</w>": 5884,
    "syndicat</w>": 5885,
    "assa": 5886,
    "créée</w>": 5887,
    "compréhen": 5888,
    "incompati": 5889,
    "répé": 5890,
    "partenaires</w>": 5891,
    "prudence</w>": 5892,
    "réponses</w>": 5893,
    "évidence</w>": 5894,
    "cap": 5895,
    "indication</w>": 5896,
    "éclai": 5897,
    "temporaire</w>": 5898,
    "ao</w>": 5899,
    "tal</w>": 5900,
    "idem</w>": 5901,
    "réalisés</w>": 5902,
    "existant</w>": 5903,
    "traduction</w>": 5904,
    "constitutions</w>": 5905,
    "128</w>": 5906,
    "imparti": 5907,
    "perception</w>": 5908,
    "biais</w>": 5909,
    "communications</w>": 5910,
    "djan</w>": 5911,
    "llon</w>": 5912,
    "autorisé</w>": 5913,
    "lex</w>": 5914,
    "préalablement</w>": 5915,
    "oppose</w>": 5916,
    "151</w>": 5917,
    "corruption</w>": 5918,
    "arbitres</w>": 5919,
    "propose</w>": 5920,
    "adhésion</w>": 5921,
    "141</w>": 5922,
    "313</w>": 5923,
    "develop": 5924,
    "renvoy": 5925,
    "permanent</w>": 5926,
    "208</w>": 5927,
    "bénéficient</w>": 5928,
    "philippe</w>": 5929,
    "ingé": 5930,
    "camerounais</w>": 5931,
    "ivoi": 5932,
    "cm": 5933,
    "restau": 5934,
    "pf</w>": 5935,
    "possibles</w>": 5936,
    "lig": 5937,
    "provisions</w>": 5938,
    "caisse</w>": 5939,
    "aris": 5940,
    "requis</w>": 5941,
    "assemblées</w>": 5942,
    "m011": 5943,
    "90": 5944,
    "data</w>": 5945,
    "tine</w>": 5946,
    "autom": 5947,
    "id</w>": 5948,
    "rang</w>": 5949,
    "croy": 5950,
    "admission</w>": 5951,
    "203</w>": 5952,
    "dique</w>": 5953,
    "périmètre</w>": 5954,
    "oro": 5955,
    "critiques</w>": 5956,
    "apparaître</w>": 5957,
    "immédiate</w>": 5958,
    "culpabilité</w>": 5959,
    "ographie</w>": 5960,
    "normal</w>": 5961,
    "recru": 5962,
    "trop": 5963,
    "petites</w>": 5964,
    "présentent</w>": 5965,
    "destinées</w>": 5966,
    "cevoir</w>": 5967,
    "management</w>": 5968,
    "milliards</w>": 5969,
    "ya</w>": 5970,
    "engagée</w>": 5971,
    "repro": 5972,
    "2000": 5973,
    "tor</w>": 5974,
    "formalités</w>": 5975,
    "cultu": 5976,
    "informer</w>": 5977,
    "guin": 5978,
    "mauri": 5979,
    "réqu": 5980,
    "business</w>": 5981,
    "individuelles</w>": 5982,
    "juristes</w>": 5983,
    "spécialement</w>": 5984,
    "las</w>": 5985,
    "présidentielle</w>": 5986,
    "gour": 5987,
    "initiale</w>": 5988,
    "attitude</w>": 5989,
    "rappeler</w>": 5990,
    "pul": 5991,
    "237</w>": 5992,
    "négociations</w>": 5993,
    "méthodo": 5994,
    "bain</w>": 5995,
    "support</w>": 5996,
    "drait</w>": 5997,
    "lignes</w>": 5998,
    "valoir</w>": 5999,
    "extérieur</w>": 6000,
    "cements</w>": 6001,
    "aver": 6002,
    "dessous</w>": 6003,
    "quarti": 6004,
    "simples</w>": 6005,
    "discussion</w>": 6006,
    "mutation</w>": 6007,
    "harmattan</w>": 6008,
    "sph": 6009,
    "prélimin": 6010,
    "contrôler</w>": 6011,
    "fonctionnaire</w>": 6012,
    "concernent</w>": 6013,
    "geor": 6014,
    "référé</w>": 6015,
    "assises</w>": 6016,
    "africa</w>": 6017,
    "différente</w>": 6018,
    "ry": 6019,
    "142</w>": 6020,
    "ea</w>": 6021,
    "obligatoires</w>": 6022,
    "ruraux</w>": 6023,
    "213</w>": 6024,
    "campa": 6025,
    "actuellement</w>": 6026,
    "crée</w>": 6027,
    "banques</w>": 6028,
    "atoires</w>": 6029,
    "actuelle</w>": 6030,
    "active</w>": 6031,
    "prox": 6032,
    "collectives</w>": 6033,
    "obs": 6034,
    "silence</w>": 6035,
    "dienne</w>": 6036,
    "justification</w>": 6037,
    "larisation</w>": 6038,
    "étroi": 6039,
    "unjf</w>": 6040,
    "cercle</w>": 6041,
    "justement</w>": 6042,
    "responsabilités</w>": 6043,
    "tration</w>": 6044,
    "présenté</w>": 6045,
    "chron": 6046,
    "ham": 6047,
    "délibération</w>": 6048,
    "enregist": 6049,
    "rités</w>": 6050,
    "contractuel</w>": 6051,
    "esp</w>": 6052,
    "contient</w>": 6053,
    "salité</w>": 6054,
    "dépendance</w>": 6055,
    "199</w>": 6056,
    "défai": 6057,
    "passif</w>": 6058,
    "préjudici": 6059,
    "complémentaires</w>": 6060,
    "etu": 6061,
    "211</w>": 6062,
    "réta": 6063,
    "dégra": 6064,
    "rapidement</w>": 6065,
    "impossibilité</w>": 6066,
    "sci</w>": 6067,
    "tarif</w>": 6068,
    "témoin</w>": 6069,
    "préparation</w>": 6070,
    "coutume</w>": 6071,
    "codi": 6072,
    "ara": 6073,
    "corri": 6074,
    "onu</w>": 6075,
    "actuel</w>": 6076,
    "quasi": 6077,
    "ft</w>": 6078,
    "cites</w>": 6079,
    "essentielle</w>": 6080,
    "fondamentales</w>": 6081,
    "carbures</w>": 6082,
    "rencontre</w>": 6083,
    "client": 6084,
    "discipline</w>": 6085,
    "éc": 6086,
    "familiales</w>": 6087,
    "pleine</w>": 6088,
    "recev": 6089,
    "ste": 6090,
    "déch": 6091,
    "spéciales</w>": 6092,
    "meil": 6093,
    "papi": 6094,
    "pal</w>": 6095,
    "accomplissement</w>": 6096,
    "è</w>": 6097,
    "introduit</w>": 6098,
    "wh": 6099,
    "143</w>": 6100,
    "meilleure</w>": 6101,
    "ologique</w>": 6102,
    "jouer</w>": 6103,
    "décrets</w>": 6104,
    "initial</w>": 6105,
    "poss": 6106,
    "viii</w>": 6107,
    "cultures</w>": 6108,
    "africaines</w>": 6109,
    "faut": 6110,
    "humaines</w>": 6111,
    "redevance</w>": 6112,
    "nan": 6113,
    "dynamique</w>": 6114,
    "bancaires</w>": 6115,
    "émission</w>": 6116,
    "paraître</w>": 6117,
    "estimé</w>": 6118,
    "favoriser</w>": 6119,
    "réu": 6120,
    "isée</w>": 6121,
    "comi": 6122,
    "lettres</w>": 6123,
    "destru": 6124,
    "pauvres</w>": 6125,
    "division</w>": 6126,
    "cad": 6127,
    "bern": 6128,
    "ecole</w>": 6129,
    "ministères</w>": 6130,
    "contraintes</w>": 6131,
    "villages</w>": 6132,
    "vienne</w>": 6133,
    "veaux</w>": 6134,
    "américaine</w>": 6135,
    "autorise</w>": 6136,
    "001</w>": 6137,
    "adopter</w>": 6138,
    "indirectement</w>": 6139,
    "2024</w>": 6140,
    "xq": 6141,
    "groupements</w>": 6142,
    "démontrer</w>": 6143,
    "ges_": 6144,
    "dirigeant</w>": 6145,
    "raisonnement</w>": 6146,
    "kar": 6147,
    "cpi</w>": 6148,
    "populaire</w>": 6149,
    "majeur</w>": 6150,
    "conserver</w>": 6151,
    "étatiques</w>": 6152,
    "précisé</w>": 6153,
    "coutumier</w>": 6154,
    "confusion</w>": 6155,
    "253</w>": 6156,
    "boo": 6157,
    "affirme</w>": 6158,
    "strictement</w>": 6159,
    "documentation</w>": 6160,
    "pages</w>": 6161,
    "constatation</w>": 6162,
    "116</w>": 6163,
    "tendant</w>": 6164,
    "prélèvement</w>": 6165,
    "branche</w>": 6166,
    "commise</w>": 6167,
    "cable</w>": 6168,
    "comparé</w>": 6169,
    "régissant</w>": 6170,
    "quer": 6171,
    "prescriptions</w>": 6172,
    "pourront</w>": 6173,
    "antici": 6174,
    "lique</w>": 6175,
    "dants</w>": 6176,
    "assurée</w>": 6177,
    "confère</w>": 6178,
    "obtention</w>": 6179,
    "pêche</w>": 6180,
    "animaux</w>": 6181,
    "cobac</w>": 6182,
    "dudit</w>": 6183,
    "intéressés</w>": 6184,
    "banquier</w>": 6185,
    "retrouve</w>": 6186,
    "analyses</w>": 6187,
    "développer</w>": 6188,
    "final</w>": 6189,
    "ajoutée</w>": 6190,
    "admettre</w>": 6191,
    "frontières</w>": 6192,
    "procla": 6193,
    "viv": 6194,
    "abidjan</w>": 6195,
    "article_13": 6196,
    "légalement</w>": 6197,
    "établit</w>": 6198,
    "cien</w>": 6199,
    "sme</w>": 6200,
    "indiquer</w>": 6201,
    "p_": 6202,
    "habilitation</w>": 6203,
    "recueilli": 6204,
    "environ</w>": 6205,
    "rières</w>": 6206,
    "individuel</w>": 6207,
    "reconnaît</w>": 6208,
    "pub": 6209,
    "dûment</w>": 6210,
    "composé</w>": 6211,
    "formations</w>": 6212,
    "investisseurs</w>": 6213,
    "libres</w>": 6214,
    "institutionnel</w>": 6215,
    "universelle</w>": 6216,
    "312</w>": 6217,
    "familles</w>": 6218,
    "appr": 6219,
    "route</w>": 6220,
    "exportation</w>": 6221,
    "159": 6222,
    "compos": 6223,
    "dor": 6224,
    "défail": 6225,
    "conventionnelle</w>": 6226,
    "espèces</w>": 6227,
    "genti": 6228,
    "changements</w>": 6229,
    "titudes</w>": 6230,
    "réper": 6231,
    "devoirs</w>": 6232,
    "producteurs</w>": 6233,
    "plani": 6234,
    "imm": 6235,
    "hydrocarbures</w>": 6236,
    "notaires</w>": 6237,
    "whi": 6238,
    "yor": 6239,
    "urbain</w>": 6240,
    "autochtones</w>": 6241,
    "italie</w>": 6242,
    "accordé</w>": 6243,
    "rac": 6244,
    "restitution</w>": 6245,
    "chè": 6246,
    "extin": 6247,
    "vements</w>": 6248,
    "langage</w>": 6249,
    "institué</w>": 6250,
    "jury</w>": 6251,
    "tentative</w>": 6252,
    "monnaie</w>": 6253,
    "complémentaire</w>": 6254,
    "10000": 6255,
    "fixés</w>": 6256,
    "petite</w>": 6257,
    "architec": 6258,
    "cohérence</w>": 6259,
    "correctionn": 6260,
    "notes</w>": 6261,
    "cirdi</w>": 6262,
    "organisée</w>": 6263,
    "répond</w>": 6264,
    "essai</w>": 6265,
    "ing": 6266,
    "prison</w>": 6267,
    "1557": 6268,
    "découverte</w>": 6269,
    "cesse</w>": 6270,
    "taille</w>": 6271,
    "this</w>": 6272,
    "définis</w>": 6273,
    "transports</w>": 6274,
    "dements</w>": 6275,
    "rue</w>": 6276,
    "délégué</w>": 6277,
    "importation</w>": 6278,
    "députés</w>": 6279,
    "disparition</w>": 6280,
    "imprim": 6281,
    "gal": 6282,
    "gatoire</w>": 6283,
    "transmis</w>": 6284,
    "153</w>": 6285,
    "tionnement</w>": 6286,
    "effectuée</w>": 6287,
    "constitutifs</w>": 6288,
    "rendus</w>": 6289,
    "destinée</w>": 6290,
    "za</w>": 6291,
    "lam": 6292,
    "oh</w>": 6293,
    "17126": 6294,
    "emplois</w>": 6295,
    "159</w>": 6296,
    "ica</w>": 6297,
    "suppression</w>": 6298,
    "mixte</w>": 6299,
    "déroulement</w>": 6300,
    "ref_200": 6301,
    "pouvaient</w>": 6302,
    "dum</w>": 6303,
    "1512": 6304,
    "incorpor": 6305,
    "amiable</w>": 6306,
    "bank</w>": 6307,
    "atteint</w>": 6308,
    "bruy": 6309,
    "134</w>": 6310,
    "convo": 6311,
    "erte</w>": 6312,
    "118</w>": 6313,
    "bau": 6314,
    "ajouter</w>": 6315,
    "recommandations</w>": 6316,
    "contributions</w>": 6317,
    "mener</w>": 6318,
    "stratégies</w>": 6319,
    "confidenti": 6320,
    "dépass": 6321,
    "lumière</w>": 6322,
    "et_": 6323,
    "passation</w>": 6324,
    "cédé</w>": 6325,
    "existent</w>": 6326,
    "frap": 6327,
    "réussi": 6328,
    "unités</w>": 6329,
    "veille</w>": 6330,
    "centa": 6331,
    "entraîner</w>": 6332,
    "loyer</w>": 6333,
    "observer</w>": 6334,
    "stance</w>": 6335,
    "candidat</w>": 6336,
    "payé</w>": 6337,
    "163</w>": 6338,
    "résou": 6339,
    "scè": 6340,
    "échéance</w>": 6341,
    "choisi</w>": 6342,
    "z_vous</w>": 6343,
    "statuant</w>": 6344,
    "distance</w>": 6345,
    "similaires</w>": 6346,
    "with</w>": 6347,
    "criti": 6348,
    "mouvements</w>": 6349,
    "éditions</w>": 6350,
    "pées</w>": 6351,
    "phon": 6352,
    "universel</w>": 6353,
    "135</w>": 6354,
    "sani": 6355,
    "ctes</w>": 6356,
    "nou": 6357,
    "alleman": 6358,
    "pris": 6359,
    "martin</w>": 6360,
    "yeux</w>": 6361,
    "invoquer</w>": 6362,
    "vv": 6363,
    "senten": 6364,
    "voulu</w>": 6365,
    "ent_": 6366,
    "fixation</w>": 6367,
    "considérations</w>": 6368,
    "expé": 6369,
    "reconnus</w>": 6370,
    "événement</w>": 6371,
    "rément</w>": 6372,
    "camerouna": 6373,
    "190</w>": 6374,
    "aristo": 6375,
    "rences</w>": 6376,
    "arrive</w>": 6377,
    "vice_": 6378,
    "lingu": 6379,
    "artificielle</w>": 6380,
    "technologies</w>": 6381,
    "trant</w>": 6382,
    "budgétaires</w>": 6383,
    "détru": 6384,
    "révocation</w>": 6385,
    "authen": 6386,
    "élimin": 6387,
    "8000": 6388,
    "adressée</w>": 6389,
    "épreuve</w>": 6390,
    "rio</w>": 6391,
    "160</w>": 6392,
    "fournisseur</w>": 6393,
    "tho": 6394,
    "moyenne</w>": 6395,
    "las": 6396,
    "exercent</w>": 6397,
    "van": 6398,
    "empi": 6399,
    "village": 6400,
    "apports</w>": 6401,
    "quar": 6402,
    "137</w>": 6403,
    "kam": 6404,
    "propriétés</w>": 6405,
    "ennemi</w>": 6406,
    "191</w>": 6407,
    "finalité</w>": 6408,
    "tition</w>": 6409,
    "147</w>": 6410,
    "obi": 6411,
    "lq": 6412,
    "commettre</w>": 6413,
    "201</w>": 6414,
    "litigi": 6415,
    "références</w>": 6416,
    "dispositifs</w>": 6417,
    "contraven": 6418,
    "procu": 6419,
    "mo</w>": 6420,
    "faisait</w>": 6421,
    "puissent</w>": 6422,
    "ours</w>": 6423,
    "électorale</w>": 6424,
    "courir</w>": 6425,
    "primaire</w>": 6426,
    "clientèle</w>": 6427,
    "admet</w>": 6428,
    "ther": 6429,
    "vul": 6430,
    "wal": 6431,
    "edition</w>": 6432,
    "quiert</w>": 6433,
    "autorisée</w>": 6434,
    "caractères</w>": 6435,
    "problématique</w>": 6436,
    "air</w>": 6437,
    "forfai": 6438,
    "exclut</w>": 6439,
    "poursuivi</w>": 6440,
    "149</w>": 6441,
    "portés</w>": 6442,
    "250</w>": 6443,
    "06": 6444,
    "corpo": 6445,
    "conseiller</w>": 6446,
    "établies</w>": 6447,
    "proba": 6448,
    "immunité</w>": 6449,
    "inférieure</w>": 6450,
    "annuaire</w>": 6451,
    "vais</w>": 6452,
    "déclare</w>": 6453,
    "directeurs</w>": 6454,
    "ailles</w>": 6455,
    "progressivement</w>": 6456,
    "opportunité</w>": 6457,
    "œurs</w>": 6458,
    "faut_il</w>": 6459,
    "255</w>": 6460,
    "perform": 6461,
    "155</w>": 6462,
    "utilisateur</w>": 6463,
    "radica": 6464,
    "uri": 6465,
    "sentiment</w>": 6466,
    "spon": 6467,
    "devraient</w>": 6468,
    "214</w>": 6469,
    "ressortiss": 6470,
    "oblige</w>": 6471,
    "miniers</w>": 6472,
    "comportant</w>": 6473,
    "ran</w>": 6474,
    "rd</w>": 6475,
    "possibilités</w>": 6476,
    "pertes</w>": 6477,
    "vas": 6478,
    "judi</w>": 6479,
    "criminal</w>": 6480,
    "144</w>": 6481,
    "envoy": 6482,
    "intégr": 6483,
    "mater": 6484,
    "227": 6485,
    "300": 6486,
    "médiation</w>": 6487,
    "échec</w>": 6488,
    "modifiée</w>": 6489,
    "substance</w>": 6490,
    "prêts</w>": 6491,
    "miné": 6492,
    "élu</w>": 6493,
    "redevances</w>": 6494,
    "reconna": 6495,
    "alise</w>": 6496,
    "agro": 6497,
    "régulière</w>": 6498,
    "réflexions</w>": 6499,
    "perspectives</w>": 6500,
    "parole</w>": 6501,
    "may": 6502,
    "affirmation</w>": 6503,
    "conclus</w>": 6504,
    "bles": 6505,
    "masse</w>": 6506,
    "phra": 6507,
    "rise</w>": 6508,
    "réside</w>": 6509,
    "logiciel</w>": 6510,
    "accepter</w>": 6511,
    "provinci": 6512,
    "éron": 6513,
    "abat": 6514,
    "gner</w>": 6515,
    "162</w>": 6516,
    "crédit_": 6517,
    "singu": 6518,
    "9000": 6519,
    "fil</w>": 6520,
    "rard</w>": 6521,
    "ol</w>": 6522,
    "individuels</w>": 6523,
    "opinions</w>": 6524,
    "anth": 6525,
    "variable</w>": 6526,
    "ouvoir</w>": 6527,
    "dialogue</w>": 6528,
    "commises</w>": 6529,
    "ps": 6530,
    "fe</w>": 6531,
    "511</w>": 6532,
    "utilisateurs</w>": 6533,
    "théorique</w>": 6534,
    "view</w>": 6535,
    "destiné</w>": 6536,
    "certitude</w>": 6537,
    "naux</w>": 6538,
    "niveaux</w>": 6539,
    "effectuées</w>": 6540,
    "vivre</w>": 6541,
    "dani": 6542,
    "tc</w>": 6543,
    "bap": 6544,
    "familiale</w>": 6545,
    "canada</w>": 6546,
    "pouss": 6547,
    "outil</w>": 6548,
    "rappelle</w>": 6549,
    "tec</w>": 6550,
    "annuelle</w>": 6551,
    "violations</w>": 6552,
    "chim": 6553,
    "collaboration</w>": 6554,
    "gabon</w>": 6555,
    "maintenant</w>": 6556,
    "indépendante</w>": 6557,
    "éro": 6558,
    "invest": 6559,
    "issements</w>": 6560,
    "rai": 6561,
    "romain</w>": 6562,
    "thomas</w>": 6563,
    "présentée</w>": 6564,
    "placé</w>": 6565,
    "proxim": 6566,
    "exclusif</w>": 6567,
    "systémati": 6568,
    "qué": 6569,
    "136</w>": 6570,
    "considérées</w>": 6571,
    "rapporteur</w>": 6572,
    "146</w>": 6573,
    "tale</w>": 6574,
    "dia</w>": 6575,
    "od": 6576,
    "déterminant</w>": 6577,
    "versées</w>": 6578,
    "enrich": 6579,
    "disciplinaire</w>": 6580,
    "fraudul": 6581,
    "onér": 6582,
    "consulté</w>": 6583,
    "décen": 6584,
    "chô": 6585,
    "ambu": 6586,
    "espagne</w>": 6587,
    "207</w>": 6588,
    "claire</w>": 6589,
    "chées</w>": 6590,
    "ablement</w>": 6591,
    "faitement</w>": 6592,
    "ja": 6593,
    "pun": 6594,
    "agisse</w>": 6595,
    "sexe</w>": 6596,
    "tè": 6597,
    "encadrement</w>": 6598,
    "performance</w>": 6599,
    "pier": 6600,
    "nu</w>": 6601,
    "orienta": 6602,
    "solde</w>": 6603,
    "oua</w>": 6604,
    "consu": 6605,
    "dess": 6606,
    "contrôles</w>": 6607,
    "pétrole</w>": 6608,
    "collecte</w>": 6609,
    "priori</w>": 6610,
    "révolu": 6611,
    "respectivement</w>": 6612,
    "t_on</w>": 6613,
    "émo": 6614,
    "cies</w>": 6615,
    "industriel</w>": 6616,
    "140</w>": 6617,
    "88866251</w>": 6618,
    "organisé</w>": 6619,
    "bonnes</w>": 6620,
    "226</w>": 6621,
    "statue</w>": 6622,
    "gratuit</w>": 6623,
    "sert</w>": 6624,
    "dignité</w>": 6625,
    "fraction</w>": 6626,
    "parfaitement</w>": 6627,
    "monopole</w>": 6628,
    "mb": 6629,
    "événements</w>": 6630,
    "immatri": 6631,
    "csipli</w>": 6632,
    "contrefa</w>": 6633,
    "codes</w>": 6634,
    "is_": 6635,
    "livraison</w>": 6636,
    "citation</w>": 6637,
    "parcelles</w>": 6638,
    "promouvoir</w>": 6639,
    "preneur</w>": 6640,
    "54": 6641,
    "ear": 6642,
    "relevé</w>": 6643,
    "déclen": 6644,
    "https</w>": 6645,
    "débou": 6646,
    "________________": 6647,
    "étapes</w>": 6648,
    "moindre</w>": 6649,
    "tre_": 6650,
    "york</w>": 6651,
    "dic": 6652,
    "dt</w>": 6653,
    "cpc</w>": 6654,
    "tr</w>": 6655,
    "hosti": 6656,
    "incidence</w>": 6657,
    "togo</w>": 6658,
    "formulation</w>": 6659,
    "refuse</w>": 6660,
    "fient</w>": 6661,
    "air": 6662,
    "175</w>": 6663,
    "scène</w>": 6664,
    "const</w>": 6665,
    "maxi": 6666,
    "1945</w>": 6667,
    "exiger</w>": 6668,
    "emporte</w>": 6669,
    "dommages_": 6670,
    "dji": 6671,
    "eme</w>": 6672,
    "provenant</w>": 6673,
    "bibliographie</w>": 6674,
    "humanitaire</w>": 6675,
    "vac": 6676,
    "objective</w>": 6677,
    "éventuelle</w>": 6678,
    "identique</w>": 6679,
    "sante</w>": 6680,
    "forestier</w>": 6681,
    "industriels</w>": 6682,
    "reti": 6683,
    "disponibles</w>": 6684,
    "180</w>": 6685,
    "opérateurs</w>": 6686,
    "déterminées</w>": 6687,
    "bruylant</w>": 6688,
    "donnés</w>": 6689,
    "maurice</w>": 6690,
    "attendre</w>": 6691,
    "régionaux</w>": 6692,
    "éthique</w>": 6693,
    "nulle</w>": 6694,
    "tt</w>": 6695,
    "proposer</w>": 6696,
    "aménagements</w>": 6697,
    "fort": 6698,
    "rgp": 6699,
    "parall": 6700,
    "émergence</w>": 6701,
    "simon</w>": 6702,
    "solu</w>": 6703,
    "indiqué</w>": 6704,
    "allemand</w>": 6705,
    "quait</w>": 6706,
    "isitions</w>": 6707,
    "souligne</w>": 6708,
    "hiérarchie</w>": 6709,
    "statistiques</w>": 6710,
    "info</w>": 6711,
    "eo</w>": 6712,
    "orités</w>": 6713,
    "330</w>": 6714,
    "79": 6715,
    "loyers</w>": 6716,
    "caf</w>": 6717,
    "érentes</w>": 6718,
    "del</w>": 6719,
    "guil": 6720,
    "243</w>": 6721,
    "appelée</w>": 6722,
    "proximité</w>": 6723,
    "superficie</w>": 6724,
    "157</w>": 6725,
    "centres</w>": 6726,
    "138</w>": 6727,
    "dier</w>": 6728,
    "prononce</w>": 6729,
    "identiques</w>": 6730,
    "conseill": 6731,
    "chet</w>": 6732,
    "tuelles</w>": 6733,
    "levée</w>": 6734,
    "ation": 6735,
    "dérogation</w>": 6736,
    "cede": 6737,
    "consacre</w>": 6738,
    "mérite</w>": 6739,
    "suivent</w>": 6740,
    "dag": 6741,
    "livres</w>": 6742,
    "immobiliers</w>": 6743,
    "régler</w>": 6744,
    "comparution</w>": 6745,
    "modu": 6746,
    "diversi": 6747,
    "souligner</w>": 6748,
    "rez</w>": 6749,
    "198</w>": 6750,
    "garder</w>": 6751,
    "autorisations</w>": 6752,
    "synthèse</w>": 6753,
    "dences</w>": 6754,
    "wlrq": 6755,
    "lisés</w>": 6756,
    "isses</w>": 6757,
    "lis</w>": 6758,
    "os": 6759,
    "rgpd</w>": 6760,
    "accueil</w>": 6761,
    "fun": 6762,
    "timbre</w>": 6763,
    "indépendamment</w>": 6764,
    "croire</w>": 6765,
    "accomplir</w>": 6766,
    "156</w>": 6767,
    "spe": 6768,
    "armées</w>": 6769,
    "efforts</w>": 6770,
    "dépour": 6771,
    "proro": 6772,
    "all</w>": 6773,
    "lisations</w>": 6774,
    "collo": 6775,
    "expresse</w>": 6776,
    "appliquée</w>": 6777,
    "dangereux</w>": 6778,
    "cahier</w>": 6779,
    "es_": 6780,
    "sertion</w>": 6781,
    "véni": 6782,
    "238</w>": 6783,
    "analyser</w>": 6784,
    "robo": 6785,
    "violences</w>": 6786,
    "villes</w>": 6787,
    "sages</w>": 6788,
    "préoccu": 6789,
    "êtes</w>": 6790,
    "collectifs</w>": 6791,
    "affectés</w>": 6792,
    "priorité</w>": 6793,
    "aéri": 6794,
    "édic": 6795,
    "imposables</w>": 6796,
    "furent</w>": 6797,
    "fourniture</w>": 6798,
    "hqw": 6799,
    "eront</w>": 6800,
    "cat": 6801,
    "bass": 6802,
    "opposable</w>": 6803,
    "détenus</w>": 6804,
    "stand": 6805,
    "vabilité</w>": 6806,
    "logue</w>": 6807,
    "unilatérale</w>": 6808,
    "limo": 6809,
    "appe": 6810,
    "décisi": 6811,
    "158</w>": 6812,
    "university</w>": 6813,
    "231</w>": 6814,
    "royaume_": 6815,
    "employés</w>": 6816,
    "complexité</w>": 6817,
    "privilège</w>": 6818,
    "266</w>": 6819,
    "comp</w>": 6820,
    "nies</w>": 6821,
    "éloi": 6822,
    "formalité</w>": 6823,
    "197</w>": 6824,
    "royaume_uni</w>": 6825,
    "sinon</w>": 6826,
    "évaluer</w>": 6827,
    "approfon": 6828,
    "divul": 6829,
    "transferts</w>": 6830,
    "trouvé</w>": 6831,
    "205</w>": 6832,
    "ten</w>": 6833,
    "familial</w>": 6834,
    "résulter</w>": 6835,
    "currence</w>": 6836,
    "rapide</w>": 6837,
    "armés</w>": 6838,
    "révèle</w>": 6839,
    "destruction</w>": 6840,
    "nour": 6841,
    "arron": 6842,
    "contribuer</w>": 6843,
    "arguments</w>": 6844,
    "mat</w>": 6845,
    "contenus</w>": 6846,
    "modifiant</w>": 6847,
    "affecté</w>": 6848,
    "accidents</w>": 6849,
    "iers</w>": 6850,
    "21": 6851,
    "essentiels</w>": 6852,
    "revi": 6853,
    "constitutionna": 6854,
    "donation</w>": 6855,
    "dances</w>": 6856,
    "interroger</w>": 6857,
    "délimitation</w>": 6858,
    "fonder</w>": 6859,
    "continuité</w>": 6860,
    "puni</w>": 6861,
    "fichi": 6862,
    "reprises</w>": 6863,
    "excéder</w>": 6864,
    "consacrée</w>": 6865,
    "san</w>": 6866,
    "proportion</w>": 6867,
    "vingt_": 6868,
    "agissait</w>": 6869,
    "serment</w>": 6870,
    "délivré</w>": 6871,
    "dri": 6872,
    "assig": 6873,
    "hui": 6874,
    "grève</w>": 6875,
    "98": 6876,
    "chu": 6877,
    "bernard</w>": 6878,
    "m010": 6879,
    "connue</w>": 6880,
    "mann</w>": 6881,
    "scr": 6882,
    "lead": 6883,
    "possé": 6884,
    "manifestation</w>": 6885,
    "ordonnances</w>": 6886,
    "from</w>": 6887,
    "tolé": 6888,
    "reproduction</w>": 6889,
    "francophone</w>": 6890,
    "mentions</w>": 6891,
    "départements</w>": 6892,
    "quantité</w>": 6893,
    "calcul": 6894,
    "pt</w>": 6895,
    "173</w>": 6896,
    "modifie</w>": 6897,
    "résoudre</w>": 6898,
    "habitants</w>": 6899,
    "aca": 6900,
    "plus_values</w>": 6901,
    "avez</w>": 6902,
    "proposé</w>": 6903,
    "modé": 6904,
    "entrer</w>": 6905,
    "procédés</w>": 6906,
    "dommages_intérêts</w>": 6907,
    "présentant</w>": 6908,
    "166</w>": 6909,
    "ignor": 6910,
    "adéqua": 6911,
    "top": 6912,
    "soin</w>": 6913,
    "171</w>": 6914,
    "délictuelle</w>": 6915,
    "cents</w>": 6916,
    "entièrement</w>": 6917,
    "proprement</w>": 6918,
    "172</w>": 6919,
    "socio_": 6920,
    "description</w>": 6921,
    "fondamental</w>": 6922,
    "tiens</w>": 6923,
    "emprunt</w>": 6924,
    "trac": 6925,
    "ël</w>": 6926,
    "restrictions</w>": 6927,
    "irré": 6928,
    "stade</w>": 6929,
    "sidi": 6930,
    "libérale</w>": 6931,
    "convocation</w>": 6932,
    "notari": 6933,
    "erreurs</w>": 6934,
    "chard</w>": 6935,
    "1957</w>": 6936,
    "accéder</w>": 6937,
    "automobi": 6938,
    "opère</w>": 6939,
    "péni": 6940,
    "parent</w>": 6941,
    "limoges</w>": 6942,
    "feu</w>": 6943,
    "edi": 6944,
    "shi": 6945,
    "discré": 6946,
    "différent</w>": 6947,
    "1612": 6948,
    "indépendant</w>": 6949,
    "bat</w>": 6950,
    "géno": 6951,
    "gnée</w>": 6952,
    "vid</w>": 6953,
    "séance</w>": 6954,
    "exploitants</w>": 6955,
    "clair</w>": 6956,
    "gnes</w>": 6957,
    "164</w>": 6958,
    "ettant</w>": 6959,
    "cima</w>": 6960,
    "bout</w>": 6961,
    "ministériel</w>": 6962,
    "4e</w>": 6963,
    "médecin</w>": 6964,
    "micro": 6965,
    "eri": 6966,
    "fortement</w>": 6967,
    "garant</w>": 6968,
    "ate": 6969,
    "russi": 6970,
    "concrè": 6971,
    "wer</w>": 6972,
    "acquérir</w>": 6973,
    "dons</w>": 6974,
    "dx": 6975,
    "sélection</w>": 6976,
    "injonction</w>": 6977,
    "extrait</w>": 6978,
    "explication</w>": 6979,
    "parcelle</w>": 6980,
    "mobilières</w>": 6981,
    "cpp</w>": 6982,
    "dissement</w>": 6983,
    "wa</w>": 6984,
    "héritier</w>": 6985,
    "ex_": 6986,
    "cm</w>": 6987,
    "incar": 6988,
    "machine</w>": 6989,
    "effectivité</w>": 6990,
    "prince</w>": 6991,
    "illustration</w>": 6992,
    "pis": 6993,
    "légaux</w>": 6994,
    "rendues</w>": 6995,
    "rede": 6996,
    "angle": 6997,
    "arb</w>": 6998,
    "officiers</w>": 6999,
    "scruti": 7000,
    "pati": 7001,
    "remplir</w>": 7002,
    "exactement</w>": 7003,
    "227</w>": 7004,
    "évolutions</w>": 7005,
    "modernes</w>": 7006,
    "alé": 7007,
    "effici": 7008,
    "préliminaire</w>": 7009,
    "complexes</w>": 7010,
    "tz</w>": 7011,
    "handica": 7012,
    "transposition</w>": 7013,
    "versé</w>": 7014,
    "blanch": 7015,
    "républi": 7016,
    "baux</w>": 7017,
    "augu": 7018,
    "gno": 7019,
    "168</w>": 7020,
    "versée</w>": 7021,
    "contraign": 7022,
    "suspec": 7023,
    "éle": 7024,
    "py": 7025,
    "meurtre</w>": 7026,
    "héber": 7027,
    "négli": 7028,
    "1956</w>": 7029,
    "c_": 7030,
    "auront</w>": 7031,
    "obligatoirement</w>": 7032,
    "justifiée</w>": 7033,
    "chev": 7034,
    "trad</w>": 7035,
    "8887": 7036,
    "majo": 7037,
    "wu": 7038,
    "tue</w>": 7039,
    "paci": 7040,
    "semblent</w>": 7041,
    "imposent</w>": 7042,
    "neuf</w>": 7043,
    "angleterre</w>": 7044,
    "grants</w>": 7045,
    "qualités</w>": 7046,
    "délibéré</w>": 7047,
    "fautes</w>": 7048,
    "équité</w>": 7049,
    "qpc</w>": 7050,
    "administrateurs</w>": 7051,
    "joly</w>": 7052,
    "préférence</w>": 7053,
    "imposée</w>": 7054,
    "unt</w>": 7055,
    "conju": 7056,
    "partiellement</w>": 7057,
    "148</w>": 7058,
    "95": 7059,
    "sté</w>": 7060,
    "astre": 7061,
    "fit</w>": 7062,
    "suffisant</w>": 7063,
    "classification</w>": 7064,
    "chas": 7065,
    "intermédiaires</w>": 7066,
    "orientations</w>": 7067,
    "futur</w>": 7068,
    "cemment</w>": 7069,
    "vol": 7070,
    "audio": 7071,
    "tal": 7072,
    "effectués</w>": 7073,
    "pire</w>": 7074,
    "attestation</w>": 7075,
    "charles</w>": 7076,
    "219</w>": 7077,
    "excessi": 7078,
    "phénomènes</w>": 7079,
    "logis": 7080,
    "fer</w>": 7081,
    "juridiquement</w>": 7082,
    "y_": 7083,
    "gué</w>": 7084,
    "applications</w>": 7085,
    "inti": 7086,
    "encoura": 7087,
    "ford</w>": 7088,
    "droite</w>": 7089,
    "pus</w>": 7090,
    "substitution</w>": 7091,
    "régularisation</w>": 7092,
    "prélèvements</w>": 7093,
    "dive</w>": 7094,
    "195</w>": 7095,
    "implan": 7096,
    "champs</w>": 7097,
    "empêche</w>": 7098,
    "constructions</w>": 7099,
    "différences</w>": 7100,
    "authentique</w>": 7101,
    "formelle</w>": 7102,
    "soutenir</w>": 7103,
    "écarter</w>": 7104,
    "tantôt</w>": 7105,
    "gouvernements</w>": 7106,
    "dépit</w>": 7107,
    "vendre</w>": 7108,
    "spontan": 7109,
    "legal</w>": 7110,
    "gend": 7111,
    "naturellement</w>": 7112,
    "impositions</w>": 7113,
    "récemment</w>": 7114,
    "concentra": 7115,
    "1950</w>": 7116,
    "vés</w>": 7117,
    "franco</w>": 7118,
    "amérique</w>": 7119,
    "prestataire</w>": 7120,
    "agricul": 7121,
    "bonneau</w>": 7122,
    "accepté</w>": 7123,
    "cuni": 7124,
    "solvabilité</w>": 7125,
    "nommés</w>": 7126,
    "directes</w>": 7127,
    "tuteur</w>": 7128,
    "gauche</w>": 7129,
    "recen": 7130,
    "théories</w>": 7131,
    "traditionnelle</w>": 7132,
    "king</w>": 7133,
    "annexes</w>": 7134,
    "rights</w>": 7135,
    "massi": 7136,
    "utilisées</w>": 7137,
    "235</w>": 7138,
    "advers": 7139,
    "partenariat</w>": 7140,
    "guide</w>": 7141,
    "éli": 7142,
    "audiovis": 7143,
    "épargne</w>": 7144,
    "alinéas</w>": 7145,
    "rienne</w>": 7146,
    "confon": 7147,
    "hiérarchique</w>": 7148,
    "contradiction</w>": 7149,
    "divi": 7150,
    "communiquer</w>": 7151,
    "nantes</w>": 7152,
    "yage</w>": 7153,
    "petits</w>": 7154,
    "212</w>": 7155,
    "state</w>": 7156,
    "sérieux</w>": 7157,
    "ats</w>": 7158,
    "atives</w>": 7159,
    "province</w>": 7160,
    "réprim": 7161,
    "défi": 7162,
    "contractants</w>": 7163,
    "dre": 7164,
    "mations</w>": 7165,
    "eh": 7166,
    "out</w>": 7167,
    "universitaire</w>": 7168,
    "188</w>": 7169,
    "sk": 7170,
    "vait</w>": 7171,
    "désignés</w>": 7172,
    "183</w>": 7173,
    "321</w>": 7174,
    "ob</w>": 7175,
    "conformes</w>": 7176,
    "lables</w>": 7177,
    "inconvéni": 7178,
    "1587": 7179,
    "destinataire</w>": 7180,
    "marie</w>": 7181,
    "ayants</w>": 7182,
    "admise</w>": 7183,
    "hoc</w>": 7184,
    "assor": 7185,
    "den</w>": 7186,
    "192</w>": 7187,
    "210</w>": 7188,
    "cht</w>": 7189,
    "issues</w>": 7190,
    "voyez</w>": 7191,
    "dip</w>": 7192,
    "220</w>": 7193,
    "salu": 7194,
    "douze</w>": 7195,
    "hab": 7196,
    "camerounaise</w>": 7197,
    "fan": 7198,
    "faction</w>": 7199,
    "détenteur</w>": 7200,
    "entière</w>": 7201,
    "professions</w>": 7202,
    "appliqué</w>": 7203,
    "communale</w>": 7204,
    "mie</w>": 7205,
    "179</w>": 7206,
    "coun": 7207,
    "00000": 7208,
    "acteur</w>": 7209,
    "genève</w>": 7210,
    "181</w>": 7211,
    "1955</w>": 7212,
    "présents</w>": 7213,
    "reprendre</w>": 7214,
    "165</w>": 7215,
    "rester</w>": 7216,
    "issante</w>": 7217,
    "217</w>": 7218,
    "circonstance</w>": 7219,
    "mar</w>": 7220,
    "mine</w>": 7221,
    "représenter</w>": 7222,
    "érente</w>": 7223,
    "sse": 7224,
    "tio</w>": 7225,
    "figurant</w>": 7226,
    "cura": 7227,
    "regrou": 7228,
    "satisfaire</w>": 7229,
    "hn</w>": 7230,
    "électoral</w>": 7231,
    "graphique</w>": 7232,
    "it": 7233,
    "sis</w>": 7234,
    "situé</w>": 7235,
    "compromis</w>": 7236,
    "aéron": 7237,
    "adhér": 7238,
    "caractérise</w>": 7239,
    "pécuni": 7240,
    "déclarée</w>": 7241,
    "onéreux</w>": 7242,
    "commenta": 7243,
    "1948</w>": 7244,
    "rô": 7245,
    "pdf</w>": 7246,
    "articu": 7247,
    "line</w>": 7248,
    "argument</w>": 7249,
    "admin</w>": 7250,
    "accessoires</w>": 7251,
    "concurren": 7252,
    "elec": 7253,
    "remplacement</w>": 7254,
    "249</w>": 7255,
    "jc</w>": 7256,
    "renouve": 7257,
    "municipal</w>": 7258,
    "brevet</w>": 7259,
    "bagu": 7260,
    "ouvre</w>": 7261,
    "souscription</w>": 7262,
    "sce": 7263,
    "sures</w>": 7264,
    "découle</w>": 7265,
    "marques</w>": 7266,
    "din</w>": 7267,
    "hypothèque</w>": 7268,
    "nale</w>": 7269,
    "ii": 7270,
    "241</w>": 7271,
    "justifié</w>": 7272,
    "tente</w>": 7273,
    "usagers</w>": 7274,
    "antérieurement</w>": 7275,
    "cieux</w>": 7276,
    "185</w>": 7277,
    "couverture</w>": 7278,
    "cahiers</w>": 7279,
    "ouvrir</w>": 7280,
    "préserver</w>": 7281,
    "dénomination</w>": 7282,
    "loir</w>": 7283,
    "étre</w>": 7284,
    "endrait</w>": 7285,
    "arrêtés</w>": 7286,
    "guerres</w>": 7287,
    "motivée</w>": 7288,
    "fec": 7289,
    "coor": 7290,
    "zo": 7291,
    "finance</w>": 7292,
    "déduire</w>": 7293,
    "insertion</w>": 7294,
    "failli": 7295,
    "abandon</w>": 7296,
    "hw": 7297,
    "passés</w>": 7298,
    "publiée</w>": 7299,
    "compréhension</w>": 7300,
    "initialement</w>": 7301,
    "légitimes</w>": 7302,
    "participe</w>": 7303,
    "analo": 7304,
    "partiel</w>": 7305,
    "lande</w>": 7306,
    "229</w>": 7307,
    "pilo": 7308,
    "faibl": 7309,
    "paru</w>": 7310,
    "deaux</w>": 7311,
    "cendants</w>": 7312,
    "aider</w>": 7313,
    "tez</w>": 7314,
    "congrès</w>": 7315,
    "sc": 7316,
    "invention</w>": 7317,
    "pologie</w>": 7318,
    "ciers</w>": 7319,
    "consécu": 7320,
    "proches</w>": 7321,
    "ouri</w>": 7322,
    "facteur</w>": 7323,
    "187</w>": 7324,
    "wan": 7325,
    "cedeao</w>": 7326,
    "insuffisance</w>": 7327,
    "préambu": 7328,
    "hos": 7329,
    "fournitures</w>": 7330,
    "anthro": 7331,
    "rsc</w>": 7332,
    "19127": 7333,
    "comparaison</w>": 7334,
    "accélé": 7335,
    "diplomatique</w>": 7336,
    "sei": 7337,
    "absor": 7338,
    "adjudicateur</w>": 7339,
    "pérer</w>": 7340,
    "parvenir</w>": 7341,
    "tiste</w>": 7342,
    "proce": 7343,
    "dénonciation</w>": 7344,
    "endr": 7345,
    "sentences</w>": 7346,
    "247</w>": 7347,
    "alg": 7348,
    "issu</w>": 7349,
    "logy</w>": 7350,
    "postes</w>": 7351,
    "brou": 7352,
    "lutter</w>": 7353,
    "ave</w>": 7354,
    "doctrin": 7355,
    "cja</w>": 7356,
    "manqu": 7357,
    "article_12": 7358,
    "manu": 7359,
    "délica": 7360,
    "ctives</w>": 7361,
    "pfr</w>": 7362,
    "détail</w>": 7363,
    "producteur</w>": 7364,
    "regi": 7365,
    "common</w>": 7366,
    "dur": 7367,
    "impartialité</w>": 7368,
    "juricaf</w>": 7369,
    "systématique</w>": 7370,
    "consultatif</w>": 7371,
    "renonciation</w>": 7372,
    "déficit</w>": 7373,
    "domicili": 7374,
    "navires</w>": 7375,
    "rents</w>": 7376,
    "résolu": 7377,
    "réellement</w>": 7378,
    "pater": 7379,
    "omission</w>": 7380,
    "redevable</w>": 7381,
    "ferme</w>": 7382,
    "contemporaine</w>": 7383,
    "refusé</w>": 7384,
    "taxation</w>": 7385,
    "exprime</w>": 7386,
    "opposabilité</w>": 7387,
    "attaqué</w>": 7388,
    "rq</w>": 7389,
    "sommaire</w>": 7390,
    "dépla": 7391,
    "magistrature</w>": 7392,
    "ref_20": 7393,
    "pléni": 7394,
    "rencontr": 7395,
    "équipement</w>": 7396,
    "qualifié</w>": 7397,
    "pièce</w>": 7398,
    "tempor": 7399,
    "secours</w>": 7400,
    "puissances</w>": 7401,
    "échanti": 7402,
    "mobilisation</w>": 7403,
    "eb": 7404,
    "ap</w>": 7405,
    "opérer</w>": 7406,
    "crises</w>": 7407,
    "contester</w>": 7408,
    "subro": 7409,
    "georges</w>": 7410,
    "exprimer</w>": 7411,
    "f_": 7412,
    "600</w>": 7413,
    "sion": 7414,
    "complet</w>": 7415,
    "178</w>": 7416,
    "fondements</w>": 7417,
    "amortissement</w>": 7418,
    "frontière</w>": 7419,
    "specta": 7420,
    "taine</w>": 7421,
    "avant_": 7422,
    "accorde</w>": 7423,
    "devront</w>": 7424,
    "occurrence</w>": 7425,
    "obligé</w>": 7426,
    "criminel</w>": 7427,
    "234</w>": 7428,
    "franch": 7429,
    "corporation</w>": 7430,
    "définitivement</w>": 7431,
    "présidence</w>": 7432,
    "enneté</w>": 7433,
    "préambule</w>": 7434,
    "pénalités</w>": 7435,
    "er_": 7436,
    "alté": 7437,
    "233</w>": 7438,
    "nelle</w>": 7439,
    "russie</w>": 7440,
    "suivie</w>": 7441,
    "ller</w>": 7442,
    "issus</w>": 7443,
    "délinqu": 7444,
    "classiques</w>": 7445,
    "intitulé</w>": 7446,
    "domination</w>": 7447,
    "renouvel": 7448,
    "sua": 7449,
    "valablement</w>": 7450,
    "célè": 7451,
    "infrastructures</w>": 7452,
    "investisseur</w>": 7453,
    "témoig": 7454,
    "tiquement</w>": 7455,
    "enda</w>": 7456,
    "informé</w>": 7457,
    "visent</w>": 7458,
    "kar</w>": 7459,
    "18127": 7460,
    "expériences</w>": 7461,
    "ven</w>": 7462,
    "suffisante</w>": 7463,
    "cherche</w>": 7464,
    "174</w>": 7465,
    "158039": 7466,
    "extinction</w>": 7467,
    "pres</w>": 7468,
    "1412": 7469,
    "homolo": 7470,
    "236</w>": 7471,
    "sphère</w>": 7472,
    "400</w>": 7473,
    "194</w>": 7474,
    "fera</w>": 7475,
    "gérard</w>": 7476,
    "préfec": 7477,
    "électricité</w>": 7478,
    "cata": 7479,
    "184</w>": 7480,
    "66": 7481,
    "stique</w>": 7482,
    "lourde</w>": 7483,
    "legif</w>": 7484,
    "intéressant</w>": 7485,
    "bureaux</w>": 7486,
    "composée</w>": 7487,
    "spor": 7488,
    "consom</w>": 7489,
    "èvement</w>": 7490,
    "périodes</w>": 7491,
    "ledit</w>": 7492,
    "essentielles</w>": 7493,
    "305</w>": 7494,
    "nette</w>": 7495,
    "224</w>": 7496,
    "parado": 7497,
    "imposées</w>": 7498,
    "dividen": 7499,
    "rigour": 7500,
    "ks</w>": 7501,
    "communal</w>": 7502,
    "emprunteur</w>": 7503,
    "haye</w>": 7504,
    "contenant</w>": 7505,
    "europe": 7506,
    "autoriser</w>": 7507,
    "migrants</w>": 7508,
    "bagula</w>": 7509,
    "wouri</w>": 7510,
    "campagne</w>": 7511,
    "visite</w>": 7512,
    "feuille</w>": 7513,
    "télévision</w>": 7514,
    "mètres</w>": 7515,
    "rarement</w>": 7516,
    "335</w>": 7517,
    "soustra": 7518,
    "équivalent</w>": 7519,
    "alimentaires</w>": 7520,
    "united</w>": 7521,
    "vraiment</w>": 7522,
    "génocide</w>": 7523,
    "vite</w>": 7524,
    "arbitraire</w>": 7525,
    "215</w>": 7526,
    "honora": 7527,
    "étudier</w>": 7528,
    "future</w>": 7529,
    "vice_président</w>": 7530,
    "artisanale</w>": 7531,
    "précédemment</w>": 7532,
    "scientifiques</w>": 7533,
    "automatique</w>": 7534,
    "religieux</w>": 7535,
    "repris</w>": 7536,
    "fournisseurs</w>": 7537,
    "récente</w>": 7538,
    "demeurent</w>": 7539,
    "c_n": 7540,
    "stipulation</w>": 7541,
    "léon</w>": 7542,
    "réclamation</w>": 7543,
    "delmas</w>": 7544,
    "fic</w>": 7545,
    "graphie</w>": 7546,
    "bons</w>": 7547,
    "privilèges</w>": 7548,
    "sév": 7549,
    "prévoient</w>": 7550,
    "cale</w>": 7551,
    "constante</w>": 7552,
    "cair": 7553,
    "{</w>": 7554,
    "1954</w>": 7555,
    "capi": 7556,
    "pluri": 7557,
    "aus</w>": 7558,
    "c_nd</w>": 7559,
    "incompétence</w>": 7560,
    "alistes</w>": 7561,
    "assass": 7562,
    "déché": 7563,
    "causalité</w>": 7564,
    "tours</w>": 7565,
    "1946</w>": 7566,
    "forfaitaire</w>": 7567,
    "pondé": 7568,
    "causés</w>": 7569,
    "parentale</w>": 7570,
    "dentes</w>": 7571,
    "interventions</w>": 7572,
    "possède</w>": 7573,
    "développements</w>": 7574,
    "supplémentaires</w>": 7575,
    "élarg": 7576,
    "cci</w>": 7577,
    "cairn</w>": 7578,
    "dictionn": 7579,
    "commence</w>": 7580,
    "géographique</w>": 7581,
    "exclure</w>": 7582,
    "chercheur</w>": 7583,
    "cl</w>": 7584,
    "331</w>": 7585,
    "audit</w>": 7586,
    "yp": 7587,
    "by_n": 7588,
    "argenti": 7589,
    "concepts</w>": 7590,
    "défé": 7591,
    "lend": 7592,
    "pétrolières</w>": 7593,
    "by_nc_nd</w>": 7594,
    "échel": 7595,
    "mutations</w>": 7596,
    "rémunérations</w>": 7597,
    "adapter</w>": 7598,
    "modernisation</w>": 7599,
    "consulting</w>": 7600,
    "enjeu</w>": 7601,
    "actualité</w>": 7602,
    "cana": 7603,
    "parfaite</w>": 7604,
    "chron</w>": 7605,
    "lim": 7606,
    "constatée</w>": 7607,
    "ambigu": 7608,
    "combat": 7609,
    "conserve</w>": 7610,
    "fique</w>": 7611,
    "perdu</w>": 7612,
    "182</w>": 7613,
    "carrières</w>": 7614,
    "general</w>": 7615,
    "fortune</w>": 7616,
    "228</w>": 7617,
    "référés</w>": 7618,
    "situés</w>": 7619,
    "contestée</w>": 7620,
    "186</w>": 7621,
    "registres</w>": 7622,
    "clusion</w>": 7623,
    "nau": 7624,
    "domani</w>": 7625,
    "formée</w>": 7626,
    "exister</w>": 7627,
    "réunies</w>": 7628,
    "observatoire</w>": 7629,
    "roper": 7630,
    "henri</w>": 7631,
    "satisfaction</w>": 7632,
    "algori": 7633,
    "diag": 7634,
    "hési": 7635,
    "commandement</w>": 7636,
    "exique</w>": 7637,
    "algorith": 7638,
    "étend</w>": 7639,
    "intégrer</w>": 7640,
    "engagé</w>": 7641,
    "personnellement</w>": 7642,
    "adresser</w>": 7643,
    "externe</w>": 7644,
    "244</w>": 7645,
    "nance</w>": 7646,
    "courtage</w>": 7647,
    "roperdomani</w>": 7648,
    "christi": 7649,
    "servant</w>": 7650,
    "libroperdomani</w>": 7651,
    "montrer</w>": 7652,
    "unlibroperdomani</w>": 7653,
    "indiff": 7654,
    "consolidation</w>": 7655,
    "rères</w>": 7656,
    "papier</w>": 7657,
    "échapper</w>": 7658,
    "ultérieurement</w>": 7659,
    "taneo</w>": 7660,
    "indirecte</w>": 7661,
    "rons</w>": 7662,
    "abon": 7663,
    "tun": 7664,
    "caine</w>": 7665,
    "étendre</w>": 7666,
    "cattaneo</w>": 7667,
    "stratégique</w>": 7668,
    "planification</w>": 7669,
    "cr</w>": 7670,
    "scrutin</w>": 7671,
    "req</w>": 7672,
    "comporter</w>": 7673,
    "exploiter</w>": 7674,
    "article_7": 7675,
    "rémi</w>": 7676,
    "original</w>": 7677,
    "utilise</w>": 7678,
    "colloque</w>": 7679,
    "323</w>": 7680,
    "normale</w>": 7681,
    "bien_": 7682,
    "palais</w>": 7683,
    "hauteur</w>": 7684,
    "impéri": 7685,
    "rattachement</w>": 7686,
    "constitutionnels</w>": 7687,
    "innovation</w>": 7688,
    "tuels</w>": 7689,
    "conservatoires</w>": 7690,
    "7000": 7691,
    "tit</w>": 7692,
    "concu": 7693,
    "supplémentaire</w>": 7694,
    "pal": 7695,
    "political</w>": 7696,
    "3000": 7697,
    "facile</w>": 7698,
    "t_ils</w>": 7699,
    "précisant</w>": 7700,
    "poursuit</w>": 7701,
    "gère</w>": 7702,
    "subsidi": 7703,
    "habituelle</w>": 7704,
    "lendem": 7705,
    "facilement</w>": 7706,
    "majeurs</w>": 7707,
    "citée</w>": 7708,
    "ws</w>": 7709,
    "américains</w>": 7710,
    "dolla": 7711,
    "écrits</w>": 7712,
    "riser</w>": 7713,
    "nécessite</w>": 7714,
    "certainement</w>": 7715,
    "adde</w>": 7716,
    "ut</w>": 7717,
    "tâche</w>": 7718,
    "yaoundé</w>": 7719,
    "1000": 7720,
    "hend": 7721,
    "voisins</w>": 7722,
    "brut</w>": 7723,
    "bourg</w>": 7724,
    "quatri": 7725,
    "travailler</w>": 7726,
    "énoncé</w>": 7727,
    "annex": 7728,
    "quelqu</w>": 7729,
    "criminalité</w>": 7730,
    "exceptionnel</w>": 7731,
    "incombe</w>": 7732,
    "lienne</w>": 7733,
    "littéra": 7734,
    "tius</w>": 7735,
    "apporte</w>": 7736,
    "concertation</w>": 7737,
    "testa": 7738,
    "subsis": 7739,
    "230</w>": 7740,
    "256</w>": 7741,
    "257</w>": 7742,
    "67": 7743,
    "séjour</w>": 7744,
    "éte": 7745,
    "courtier</w>": 7746,
    "réun": 7747,
    "subven": 7748,
    "eg": 7749,
    "quartier</w>": 7750,
    "ep": 7751,
    "licen": 7752,
    "421</w>": 7753,
    "lpf</w>": 7754,
    "rablement</w>": 7755,
    "considérable</w>": 7756,
    "accepte</w>": 7757,
    "cocontractant</w>": 7758,
    "bref</w>": 7759,
    "détri": 7760,
    "changer</w>": 7761,
    "enregistré</w>": 7762,
    "ory</w>": 7763,
    "bassa": 7764,
    "consor": 7765,
    "rjf</w>": 7766,
    "antérieures</w>": 7767,
    "curi": 7768,
    "prescrit</w>": 7769,
    "dissimu": 7770,
    "pâ": 7771,
    "psychologie</w>": 7772,
    "wo": 7773,
    "chômage</w>": 7774,
    "merco": 7775,
    "onto": 7776,
    "ku": 7777,
    "couple</w>": 7778,
    "portu": 7779,
    "branches</w>": 7780,
    "effectue</w>": 7781,
    "pend": 7782,
    "1789</w>": 7783,
    "travailleur</w>": 7784,
    "jap": 7785,
    "ratification</w>": 7786,
    "we</w>": 7787,
    "ord</w>": 7788,
    "offer": 7789,
    "314</w>": 7790,
    "pied</w>": 7791,
    "signer</w>": 7792,
    "traditionnellement</w>": 7793,
    "participa": 7794,
    "investment</w>": 7795,
    "quasi_": 7796,
    "blanchiment</w>": 7797,
    "juriste</w>": 7798,
    "confis": 7799,
    "protégé</w>": 7800,
    "paré</w>": 7801,
    "69": 7802,
    "301</w>": 7803,
    "émis</w>": 7804,
    "arran": 7805,
    "présidents</w>": 7806,
    "ssement</w>": 7807,
    "fk": 7808,
    "déterminés</w>": 7809,
    "souhaite</w>": 7810,
    "claude</w>": 7811,
    "normatif</w>": 7812,
    "fabrication</w>": 7813,
    "189</w>": 7814,
    "participent</w>": 7815,
    "détenu</w>": 7816,
    "moyenn": 7817,
    "manipu": 7818,
    "fid": 7819,
    "renoncer</w>": 7820,
    "affirmé</w>": 7821,
    "successo": 7822,
    "crédit_bail</w>": 7823,
    "écriture</w>": 7824,
    "britan": 7825,
    "quet</w>": 7826,
    "report</w>": 7827,
    "arme</w>": 7828,
    "ix</w>": 7829,
    "gic</w>": 7830,
    "mathé": 7831,
    "traditionnelles</w>": 7832,
    "conséc": 7833,
    "hospita": 7834,
    "gabon": 7835,
    "dépense</w>": 7836,
    "extraits</w>": 7837,
    "requises</w>": 7838,
    "287</w>": 7839,
    "validation</w>": 7840,
    "cas": 7841,
    "détriment</w>": 7842,
    "lf</w>": 7843,
    "naud</w>": 7844,
    "fille</w>": 7845,
    "concentration</w>": 7846,
    "411</w>": 7847,
    "mig": 7848,
    "préservation</w>": 7849,
    "déposé</w>": 7850,
    "chercher</w>": 7851,
    "chasse</w>": 7852,
    "sols</w>": 7853,
    "linguis": 7854,
    "cass": 7855,
    "provisoires</w>": 7856,
    "détail": 7857,
    "tax</w>": 7858,
    "soix": 7859,
    "antérieur</w>": 7860,
    "consistant</w>": 7861,
    "times</w>": 7862,
    "258</w>": 7863,
    "régie</w>": 7864,
    "surface</w>": 7865,
    "effort</w>": 7866,
    "inde": 7867,
    "disant</w>": 7868,
    "coutumes</w>": 7869,
    "imposé</w>": 7870,
    "découlant</w>": 7871,
    "téléchargé</w>": 7872,
    "on_": 7873,
    "élevage</w>": 7874,
    "appuy": 7875,
    "pénitenti": 7876,
    "cath": 7877,
    "etats_unis</w>": 7878,
    "ref_0": 7879,
    "pleinement</w>": 7880,
    "pure</w>": 7881,
    "affirmer</w>": 7882,
    "plainte</w>": 7883,
    "speci": 7884,
    "requise</w>": 7885,
    "tatifs</w>": 7886,
    "amp": 7887,
    "lendemain</w>": 7888,
    "cumul</w>": 7889,
    "somm</w>": 7890,
    "men</w>": 7891,
    "retient</w>": 7892,
    "soup</w>": 7893,
    "kon": 7894,
    "ure</w>": 7895,
    "dépôts</w>": 7896,
    "tionnée</w>": 7897,
    "partout</w>": 7898,
    "substantielle</w>": 7899,
    "pollu": 7900,
    "concessions</w>": 7901,
    "incul": 7902,
    "euro</w>": 7903,
    "which</w>": 7904,
    "rin": 7905,
    "syndicats</w>": 7906,
    "ml</w>": 7907,
    "kins": 7908,
    "aliser</w>": 7909,
    "4000": 7910,
    "appartenance</w>": 7911,
    "entou": 7912,
    "acquise</w>": 7913,
    "ohv</w>": 7914,
    "rey</w>": 7915,
    "meilleur</w>": 7916,
    "prononcées</w>": 7917,
    "déposer</w>": 7918,
    "phrase</w>": 7919,
    "représentent</w>": 7920,
    "59": 7921,
    "isible</w>": 7922,
    "précédente</w>": 7923,
    "spi": 7924,
    "wd": 7925,
    "envisager</w>": 7926,
    "tâches</w>": 7927,
    "fh": 7928,
    "tagne</w>": 7929,
    "découv": 7930,
    "oriz": 7931,
    "dot</w>": 7932,
    "cellu": 7933,
    "indig": 7934,
    "médical</w>": 7935,
    "240</w>": 7936,
    "apprenti": 7937,
    "ménage</w>": 7938,
    "réalise</w>": 7939,
    "tueux</w>": 7940,
    "détient</w>": 7941,
    "perdre</w>": 7942,
    "évident</w>": 7943,
    "réservé</w>": 7944,
    "consécration</w>": 7945,
    "trés</w>": 7946,
    "appropriation</w>": 7947,
    "universitaires</w>": 7948,
    "dante</w>": 7949,
    "réparer</w>": 7950,
    "locations</w>": 7951,
    "fidu": 7952,
    "usu": 7953,
    "espagno": 7954,
    "293</w>": 7955,
    "flo": 7956,
    "subordonnée</w>": 7957,
    "pertinence</w>": 7958,
    "david</w>": 7959,
    "gar</w>": 7960,
    "machines</w>": 7961,
    "apparaissent</w>": 7962,
    "inspection</w>": 7963,
    "tion_": 7964,
    "pollution</w>": 7965,
    "variables</w>": 7966,
    "venu</w>": 7967,
    "naître</w>": 7968,
    "mercosur</w>": 7969,
    "77": 7970,
    "alerte</w>": 7971,
    "245</w>": 7972,
    "tissements</w>": 7973,
    "déchéance</w>": 7974,
    "moyennant</w>": 7975,
    "londres</w>": 7976,
    "chap</w>": 7977,
    "instructions</w>": 7978,
    "publ</w>": 7979,
    "plus_value</w>": 7980,
    "dakar</w>": 7981,
    "matérielles</w>": 7982,
    "classées</w>": 7983,
    "neutralité</w>": 7984,
    "nier</w>": 7985,
    "abjc</w>": 7986,
    "viser</w>": 7987,
    "216</w>": 7988,
    "interdire</w>": 7989,
    "regu": 7990,
    "allou": 7991,
    "sortir</w>": 7992,
    "froi": 7993,
    "consensus</w>": 7994
  },
  "id_to_token": {
    "0": "[PAD]",
    "1": "[UNK]",
    "2": "[BOS]",
    "3": "[EOS]",
    "4": "[SEP]",
    "5": "[MASK]",
    "6": "[DOC]",
    "7": "[ART]",
    "8": "[REP]",
    "9": "[JUR]",
    "10": "[CM]",
    "11": "[GA]",
    "12": "[CG]",
    "13": "[CD]",
    "14": "[TD]",
    "15": "[CF]",
    "16": "[GQ]",
    "17": "[CI]",
    "18": "[SN]",
    "19": "[BJ]",
    "20": "[BF]",
    "21": "[ML]",
    "22": "[NE]",
    "23": "[TG]",
    "24": "[GN]",
    "25": "[MG]",
    "26": "[KM]",
    "27": "[DJ]",
    "28": "[MR]",
    "29": "[OHADA]",
    "30": "[CEMAC]",
    "31": "[UEMOA]",
    "32": "[CIMA]",
    "33": "[OAPI]",
    "34": "[CIPRES]",
    "35": "[UA]",
    "36": "[COBAC]",
    "37": "[AUDCG]",
    "38": "[AUSCGIE]",
    "39": "[AUPSRVE]",
    "40": "[AURVE]",
    "41": "[AUPAP]",
    "42": "[AUTF]",
    "43": "[AUOHSADA]",
    "44": "[TRAVAIL]",
    "45": "[PENAL]",
    "46": "[FONCIER]",
    "47": "[FISCAL]",
    "48": "[BANCAIRE]",
    "49": "[SOCIAL]",
    "50": "[FAMILLE]",
    "51": "[ARBITRAGE]",
    "52": "[DOUANE]",
    "53": "[ENVIRON]",
    "54": "[LOI]",
    "55": "[DECRET]",
    "56": "[ARRETE]",
    "57": "[CIRCULAIRE]",
    "58": "[JUGEMENT]",
    "59": "[ARRET]",
    "60": "ccja",
    "61": "beac",
    "62": "bvmac",
    "63": "cosumaf",
    "64": "cndp",
    "65": "tgi",
    "66": "tcs",
    "67": "tpi",
    "68": "caa",
    "69": "cour-supreme",
    "70": "tribunal-administratif",
    "71": "conseil-etat",
    "72": "barreau",
    "73": "parquet",
    "74": "greffe",
    "75": "huissier",
    "76": "notaire",
    "77": "avocat",
    "78": "magistrat",
    "79": "greffier",
    "80": "acte-uniforme",
    "81": "exequatur",
    "82": "sentence-arbitrale",
    "83": "clause-compromissoire",
    "84": "injonction-payer",
    "85": "saisie-attribution",
    "86": "saisie-immobiliere",
    "87": "saisie-vente",
    "88": "saisie-conservatoire",
    "89": "voie-execution",
    "90": "procedure-collective",
    "91": "liquidation-judiciaire",
    "92": "redressement-judiciaire",
    "93": "concordat-preventif",
    "94": "licenciement",
    "95": "preavis",
    "96": "smig",
    "97": "smag",
    "98": "indemnite-licenciement",
    "99": "rupture-abusive",
    "100": "rupture-conventionnelle",
    "101": "demission",
    "102": "suspension-contrat",
    "103": "periode-essai",
    "104": "convention-collective",
    "105": "inspection-travail",
    "106": "tribunal-travail",
    "107": "prudhommes",
    "108": "heure-supplementaire",
    "109": "conge-annuel",
    "110": "conge-maternite",
    "111": "accident-travail",
    "112": "titre-foncier",
    "113": "immatriculation",
    "114": "cadastre",
    "115": "expropriation",
    "116": "bail-emphyteotique",
    "117": "bail-commercial",
    "118": "servitude",
    "119": "mitoyennete",
    "120": "usufruit",
    "121": "nue-propriete",
    "122": "hypotheque",
    "123": "droit-superficie",
    "124": "domaine-public",
    "125": "domaine-prive",
    "126": "lotissement",
    "127": "sarl",
    "128": "sa",
    "129": "sas",
    "130": "snc",
    "131": "gie",
    "132": "nantissement",
    "133": "gage",
    "134": "warrant",
    "135": "lettre-change",
    "136": "billet-ordre",
    "137": "protêt",
    "138": "aval",
    "139": "endossement",
    "140": "registre-commerce",
    "141": "numero-contribuable",
    "142": "assemblée-generale",
    "143": "conseil-administration",
    "144": "commissaire-comptes",
    "145": "garde-a-vue",
    "146": "detention-provisoire",
    "147": "mise-en-examen",
    "148": "non-lieu",
    "149": "classement",
    "150": "liberté-provisoire",
    "151": "cautionnement",
    "152": "perquisition",
    "153": "instruction",
    "154": "requisitoire",
    "155": "mise-en-demeure",
    "156": "amende",
    "157": "sursis",
    "158": "contrainte-corps",
    "159": "fcfa",
    "160": "xaf",
    "161": "xof",
    "162": "tva",
    "163": "is",
    "164": "irpp",
    "165": "droit-douane",
    "166": "valeur-en-douane",
    "167": "dedouanement",
    "168": "transit",
    "169": "entrepot",
    "170": "franchise",
    "171": "exoneration",
    "172": "redressement-fiscal",
    "173": "controle-fiscal",
    "174": "avis-mise-recouvrement",
    "175": "ratio-solvabilite",
    "176": "fonds-propres",
    "177": "credit-bancaire",
    "178": "escompte",
    "179": "refinancement",
    "180": "credit-documentaire",
    "181": "lettre-credit",
    "182": "garantie-bancaire",
    "183": "caution-bancaire",
    "184": "compte-dormant",
    "185": "lutte-blanchiment",
    "186": "financement-terrorisme",
    "187": "kyc",
    "188": "due-diligence",
    "189": "mariage-coutumier",
    "190": "dot",
    "191": "polygamie",
    "192": "divorce",
    "193": "separation-corps",
    "194": "pension-alimentaire",
    "195": "garde-enfant",
    "196": "adoption",
    "197": "tutelle",
    "198": "succession",
    "199": "heritage",
    "200": "testament",
    "201": "partage-successoral",
    "202": "article",
    "203": "alinea",
    "204": "paragraphe",
    "205": "loi",
    "206": "decret",
    "207": "ordonnance",
    "208": "arrete",
    "209": "circulaire",
    "210": "note-service",
    "211": "jugement",
    "212": "arret",
    "213": "ordonnance-refere",
    "214": "contradit",
    "215": "appel",
    "216": "cassation",
    "217": "pourvoi",
    "218": "moyen-cassation",
    "219": "!",
    "220": "\"",
    "221": "%",
    "222": "(",
    "223": ")",
    "224": ",",
    "225": ".",
    "226": "/",
    "227": "0",
    "228": "1",
    "229": "2",
    "230": "3",
    "231": "4",
    "232": "5",
    "233": "6",
    "234": "7",
    "235": "8",
    "236": "9",
    "237": ":",
    "238": ";",
    "239": "</w>",
    "240": "?",
    "241": "[",
    "242": "]",
    "243": "_",
    "244": "a",
    "245": "b",
    "246": "c",
    "247": "d",
    "248": "e",
    "249": "f",
    "250": "g",
    "251": "h",
    "252": "i",
    "253": "j",
    "254": "k",
    "255": "l",
    "256": "m",
    "257": "n",
    "258": "o",
    "259": "p",
    "260": "q",
    "261": "r",
    "262": "s",
    "263": "t",
    "264": "u",
    "265": "v",
    "266": "w",
    "267": "x",
    "268": "y",
    "269": "z",
    "270": "{",
    "271": "}",
    "272": "°",
    "273": "à",
    "274": "â",
    "275": "ä",
    "276": "æ",
    "277": "è",
    "278": "é",
    "279": "ê",
    "280": "ë",
    "281": "î",
    "282": "ï",
    "283": "ô",
    "284": "ù",
    "285": "û",
    "286": "ü",
    "287": "ÿ",
    "288": "œ",
    "289": "e</w>",
    "290": "s</w>",
    "291": "t</w>",
    "292": "on",
    "293": "es</w>",
    "294": ".</w>",
    "295": "en",
    "296": "ti",
    "297": ",</w>",
    "298": "de</w>",
    "299": "r</w>",
    "300": "l</w>",
    "301": "la",
    "302": "an",
    "303": "tion",
    "304": "qu",
    "305": "ou",
    "306": "le</w>",
    "307": "in",
    "308": "la</w>",
    "309": "re</w>",
    "310": "pr",
    "311": "er",
    "312": "u</w>",
    "313": "tion</w>",
    "314": "pa",
    "315": "les</w>",
    "316": "ra",
    "317": "un",
    "318": "d</w>",
    "319": "li",
    "320": "es",
    "321": "ent</w>",
    "322": "et</w>",
    "323": "é</w>",
    "324": "em",
    "325": "con",
    "326": "i</w>",
    "327": "or",
    "328": "eu",
    "329": "des</w>",
    "330": "ta",
    "331": "om",
    "332": "ci",
    "333": "à</w>",
    "334": "ri",
    "335": "er</w>",
    "336": "oi",
    "337": "au",
    "338": "que</w>",
    "339": "ce</w>",
    "340": "du</w>",
    "341": "te</w>",
    "342": "en</w>",
    "343": "dé",
    "344": "el",
    "345": "si",
    "346": "di",
    "347": "té</w>",
    "348": "ai",
    "349": "re",
    "350": "ca",
    "351": "ré",
    "352": "su",
    "353": "ch",
    "354": "on</w>",
    "355": "ts</w>",
    "356": "com",
    "357": "ement</w>",
    "358": "a</w>",
    "359": "x</w>",
    "360": "ar",
    "361": "tre</w>",
    "362": "ant</w>",
    "363": "un</w>",
    "364": "une</w>",
    "365": ")</w>",
    "366": "tu",
    "367": "me</w>",
    "368": "est</w>",
    "369": "ex",
    "370": "c</w>",
    "371": "1</w>",
    "372": "pro",
    "373": "vi",
    "374": "po",
    "375": "tr",
    "376": "(</w>",
    "377": "ans</w>",
    "378": "tra",
    "379": "té",
    "380": "pou",
    "381": "20",
    "382": "par</w>",
    "383": "tions</w>",
    "384": "ju",
    "385": "ma",
    "386": "2</w>",
    "387": "ac",
    "388": "au</w>",
    "389": "na",
    "390": ":</w>",
    "391": "il</w>",
    "392": "se</w>",
    "393": "lu",
    "394": "ne</w>",
    "395": "dans</w>",
    "396": "pré",
    "397": "ou</w>",
    "398": "n</w>",
    "399": "eur</w>",
    "400": "fi",
    "401": "res</w>",
    "402": "par",
    "403": "ter",
    "404": "oit</w>",
    "405": "3</w>",
    "406": "19",
    "407": "ont</w>",
    "408": "dr",
    "409": "cons",
    "410": "pour</w>",
    "411": "0</w>",
    "412": "bi",
    "413": "rs</w>",
    "414": "du",
    "415": "ec",
    "416": "elle</w>",
    "417": "qui</w>",
    "418": "al",
    "419": "p</w>",
    "420": "5</w>",
    "421": "pé",
    "422": "ation</w>",
    "423": "4</w>",
    "424": "av",
    "425": "cu",
    "426": "né",
    "427": "aux</w>",
    "428": "6</w>",
    "429": "ces</w>",
    "430": "pu",
    "431": "ten",
    "432": "so",
    "433": "co",
    "434": "ce",
    "435": ";</w>",
    "436": "mo",
    "437": "ge</w>",
    "438": "/</w>",
    "439": "tes</w>",
    "440": "7</w>",
    "441": "sur</w>",
    "442": "f</w>",
    "443": "bli",
    "444": "ap",
    "445": "min",
    "446": "im",
    "447": "8</w>",
    "448": "qu</w>",
    "449": "ff",
    "450": "éta",
    "451": "tou",
    "452": "no",
    "453": "per",
    "454": "for",
    "455": "comm",
    "456": "pas</w>",
    "457": "ère</w>",
    "458": "cou",
    "459": "in</w>",
    "460": "lé",
    "461": "por",
    "462": "droit</w>",
    "463": "al</w>",
    "464": "mi",
    "465": "ble</w>",
    "466": "9</w>",
    "467": "si</w>",
    "468": "lo",
    "469": "gi",
    "470": "ait</w>",
    "471": "sou",
    "472": "ver",
    "473": "as",
    "474": "eurs</w>",
    "475": "lité</w>",
    "476": "ques</w>",
    "477": "ée</w>",
    "478": "dis",
    "479": "ve</w>",
    "480": "el</w>",
    "481": "res",
    "482": "titu",
    "483": "le",
    "484": "soci",
    "485": "inter",
    "486": "tés</w>",
    "487": "ence</w>",
    "488": "ance</w>",
    "489": "peu",
    "490": "ven",
    "491": "v</w>",
    "492": "onn",
    "493": "it</w>",
    "494": "parti",
    "495": "th",
    "496": "sont</w>",
    "497": "fon",
    "498": "aire</w>",
    "499": "plu",
    "500": "ents</w>",
    "501": "ad",
    "502": "il",
    "503": "200",
    "504": "ise</w>",
    "505": "déc",
    "506": "ser",
    "507": "y</w>",
    "508": "tri",
    "509": "am",
    "510": "publi",
    "511": "ire</w>",
    "512": "tte</w>",
    "513": "tant</w>",
    "514": "201",
    "515": "été</w>",
    "516": "de",
    "517": "és</w>",
    "518": "sion</w>",
    "519": "vo",
    "520": "bu",
    "521": "ob",
    "522": "être</w>",
    "523": "gu",
    "524": "ni",
    "525": "ori",
    "526": "iss",
    "527": "pli",
    "528": "o</w>",
    "529": "voi",
    "530": "at",
    "531": "eux</w>",
    "532": "isi",
    "533": "ction</w>",
    "534": "ais</w>",
    "535": "ses</w>",
    "536": "ment</w>",
    "537": "lement</w>",
    "538": "pri",
    "539": "contra",
    "540": "elles</w>",
    "541": "ag",
    "542": "nation",
    "543": "cette</w>",
    "544": "ès</w>",
    "545": "ter</w>",
    "546": "ro",
    "547": "mes</w>",
    "548": "cation</w>",
    "549": "plus</w>",
    "550": "pos",
    "551": "uni",
    "552": "son</w>",
    "553": "minis",
    "554": "sen",
    "555": "mar",
    "556": "tionn",
    "557": "ain",
    "558": "ois</w>",
    "559": "gé",
    "560": "cé",
    "561": "cri",
    "562": "peut</w>",
    "563": "emb",
    "564": "ran",
    "565": "end",
    "566": "00",
    "567": "cer",
    "568": "mê",
    "569": "aut",
    "570": "tation</w>",
    "571": "ons</w>",
    "572": "mé",
    "573": "fin",
    "574": "ins",
    "575": "ale</w>",
    "576": "entre</w>",
    "577": "posi",
    "578": "constitu",
    "579": "pers",
    "580": "tique</w>",
    "581": "m</w>",
    "582": "comp",
    "583": "emp",
    "584": "op",
    "585": "ab",
    "586": "isation</w>",
    "587": "ers</w>",
    "588": "ren",
    "589": "tive</w>",
    "590": "ration</w>",
    "591": "te",
    "592": "ouv",
    "593": "to",
    "594": "man",
    "595": "g</w>",
    "596": "même</w>",
    "597": "199",
    "598": "ins</w>",
    "599": "cr",
    "600": "b</w>",
    "601": "tres</w>",
    "602": "arti",
    "603": "leur</w>",
    "604": "jou",
    "605": "is</w>",
    "606": "juri",
    "607": "teur</w>",
    "608": "ine</w>",
    "609": "ces",
    "610": "mais</w>",
    "611": "dem",
    "612": "ph",
    "613": "tran",
    "614": "comme</w>",
    "615": "ec</w>",
    "616": "pon",
    "617": "tif</w>",
    "618": "juridi",
    "619": "mon",
    "620": "cep",
    "621": "vent</w>",
    "622": "poli",
    "623": "inci",
    "624": "sé",
    "625": "et",
    "626": "pe</w>",
    "627": "rê",
    "628": "ent",
    "629": "jus",
    "630": "se",
    "631": "nu",
    "632": "géné",
    "633": "rè",
    "634": "eff",
    "635": "appli",
    "636": "avec</w>",
    "637": "da",
    "638": "don",
    "639": "ral</w>",
    "640": "cas</w>",
    "641": "ture</w>",
    "642": "cor",
    "643": "di</w>",
    "644": "pi",
    "645": "dre</w>",
    "646": "cré",
    "647": "bilité</w>",
    "648": "artic",
    "649": "inté",
    "650": "fait</w>",
    "651": "lor",
    "652": "pla",
    "653": "voir</w>",
    "654": "règ",
    "655": "ées</w>",
    "656": "va",
    "657": "ris",
    "658": "princi",
    "659": "tan",
    "660": "état</w>",
    "661": "ga",
    "662": "men",
    "663": "sui",
    "664": "af",
    "665": "tiv",
    "666": "internation",
    "667": "adminis",
    "668": "le_",
    "669": "ements</w>",
    "670": "do",
    "671": "droi",
    "672": "fé",
    "673": "taire</w>",
    "674": "gar",
    "675": "administra",
    "676": "procé",
    "677": "eu</w>",
    "678": "ll",
    "679": "gan",
    "680": "ainsi</w>",
    "681": "droits</w>",
    "682": "12",
    "683": "pres",
    "684": "aires</w>",
    "685": "lib",
    "686": "10",
    "687": "sur",
    "688": "bles</w>",
    "689": "tout</w>",
    "690": "nom",
    "691": "ss",
    "692": "ges</w>",
    "693": "j</w>",
    "694": "els</w>",
    "695": "organ",
    "696": "code</w>",
    "697": "oire</w>",
    "698": "cri</w>",
    "699": "ens</w>",
    "700": "ue</w>",
    "701": "lis",
    "702": "sec",
    "703": "cla",
    "704": "dire",
    "705": "ct",
    "706": "non</w>",
    "707": "ires</w>",
    "708": "ères</w>",
    "709": "dom",
    "710": "rela",
    "711": "ision</w>",
    "712": "présen",
    "713": "cdi</w>",
    "714": "che</w>",
    "715": "procédu",
    "716": "justi",
    "717": "11",
    "718": "fa",
    "719": "pour",
    "720": "cours</w>",
    "721": "gis",
    "722": "obli",
    "723": "no</w>",
    "724": "jet</w>",
    "725": "ils</w>",
    "726": "entre",
    "727": "autres</w>",
    "728": "trans",
    "729": "tiques</w>",
    "730": "doit</w>",
    "731": "disposi",
    "732": "sans</w>",
    "733": "respon",
    "734": "sy",
    "735": "fs</w>",
    "736": "gr",
    "737": "dou",
    "738": "aus",
    "739": "conse",
    "740": "servi",
    "741": "aff",
    "742": "condi",
    "743": "15",
    "744": "fra",
    "745": "emi",
    "746": "cel",
    "747": "t_",
    "748": "ous</w>",
    "749": "cour</w>",
    "750": "forma",
    "751": "article_",
    "752": "ci</w>",
    "753": "ales</w>",
    "754": "ii</w>",
    "755": "ru",
    "756": "char",
    "757": "tivi",
    "758": "tru",
    "759": "certa",
    "760": "soit</w>",
    "761": "gra",
    "762": "lan",
    "763": "ba",
    "764": "personn",
    "765": "anci",
    "766": "enti",
    "767": "sta",
    "768": "premi",
    "769": "embre</w>",
    "770": "vant</w>",
    "771": "lation</w>",
    "772": "ir</w>",
    "773": "ises</w>",
    "774": "deman",
    "775": "trai",
    "776": "ffi",
    "777": "qui",
    "778": "gn",
    "779": "tée</w>",
    "780": "rap",
    "781": "ctions</w>",
    "782": "dent</w>",
    "783": "deux</w>",
    "784": "produ",
    "785": "esti",
    "786": "eta",
    "787": "civ</w>",
    "788": "dont</w>",
    "789": "mu",
    "790": "198",
    "791": "rement</w>",
    "792": "régi",
    "793": "ie</w>",
    "794": "lors",
    "795": "estion</w>",
    "796": "péna",
    "797": "trav",
    "798": "fau",
    "799": "onne</w>",
    "800": "m0",
    "801": "prév",
    "802": "ér",
    "803": "société</w>",
    "804": "publique</w>",
    "805": "seu",
    "806": "fran",
    "807": "mes",
    "808": "juge</w>",
    "809": "z</w>",
    "810": "conseil</w>",
    "811": "ème</w>",
    "812": "17",
    "813": "oir</w>",
    "814": "contrat</w>",
    "815": "tribu",
    "816": "tives</w>",
    "817": "indi",
    "818": "13",
    "819": "erci",
    "820": "entrepr",
    "821": "rée</w>",
    "822": "pec",
    "823": "pe",
    "824": "fois</w>",
    "825": "rité</w>",
    "826": "ouver",
    "827": "10</w>",
    "828": "près</w>",
    "829": "sul",
    "830": "met",
    "831": "vre</w>",
    "832": "responsa",
    "833": "rêt</w>",
    "834": "tement</w>",
    "835": "autre</w>",
    "836": "qua",
    "837": "civi",
    "838": "ég",
    "839": "14",
    "840": "der",
    "841": "écu",
    "842": "clu",
    "843": "faire</w>",
    "844": "18",
    "845": "judi",
    "846": "vis",
    "847": "uti",
    "848": "nées</w>",
    "849": "tifs</w>",
    "850": "ants</w>",
    "851": "nouv",
    "852": "tro",
    "853": "pl",
    "854": "sous</w>",
    "855": "h</w>",
    "856": "public</w>",
    "857": "opé",
    "858": "pen",
    "859": "ission</w>",
    "860": "hu",
    "861": "bl",
    "862": "mati",
    "863": "procédure</w>",
    "864": "ique</w>",
    "865": "bien</w>",
    "866": "international</w>",
    "867": "ya",
    "868": "fond",
    "869": "che",
    "870": "fr",
    "871": "oc",
    "872": "diff",
    "873": "teurs</w>",
    "874": "20</w>",
    "875": "anti",
    "876": "euro",
    "877": "politique</w>",
    "878": "compé",
    "879": "lui</w>",
    "880": "enta",
    "881": "pay",
    "882": "cho",
    "883": "san",
    "884": "logi",
    "885": "aussi</w>",
    "886": "rale</w>",
    "887": "conven",
    "888": "fu",
    "889": "cha",
    "890": "?</w>",
    "891": "°</w>",
    "892": "lon",
    "893": "mise</w>",
    "894": "leurs</w>",
    "895": "pô",
    "896": "tent</w>",
    "897": "fai",
    "898": "ux</w>",
    "899": "com</w>",
    "900": "alement</w>",
    "901": "tence</w>",
    "902": "fes",
    "903": "16",
    "904": "contre</w>",
    "905": "fis",
    "906": "mesu",
    "907": "ban",
    "908": "ors</w>",
    "909": "commun",
    "910": "our",
    "911": "para",
    "912": "march",
    "913": "11</w>",
    "914": "exécu",
    "915": "tex",
    "916": "conom",
    "917": "ger</w>",
    "918": "téri",
    "919": "mis</w>",
    "920": "gation</w>",
    "921": "décision</w>",
    "922": "fonci",
    "923": "fication</w>",
    "924": "spé",
    "925": "ôle</w>",
    "926": "eau</w>",
    "927": "conditions</w>",
    "928": "val",
    "929": "péri",
    "930": "ines</w>",
    "931": "ù</w>",
    "932": "port</w>",
    "933": "ments</w>",
    "934": "an</w>",
    "935": "%</w>",
    "936": "où</w>",
    "937": "sor",
    "938": "bé",
    "939": "principe</w>",
    "940": "afri",
    "941": "cité</w>",
    "942": "titre</w>",
    "943": "cul",
    "944": "moins</w>",
    "945": "pouvoir</w>",
    "946": "trib",
    "947": "application</w>",
    "948": "concer",
    "949": "effet</w>",
    "950": "tin",
    "951": "née</w>",
    "952": "ets</w>",
    "953": "éri",
    "954": "s_",
    "955": "consi",
    "956": "justice</w>",
    "957": "contr",
    "958": "lar",
    "959": "partie</w>",
    "960": "avoir</w>",
    "961": "st",
    "962": "rait</w>",
    "963": "the</w>",
    "964": "w</w>",
    "965": "défin",
    "966": "exis",
    "967": "prési",
    "968": "forme</w>",
    "969": "tribun",
    "970": "propri",
    "971": "12</w>",
    "972": "dispositions</w>",
    "973": "action</w>",
    "974": "peuvent</w>",
    "975": "dit</w>",
    "976": "personne</w>",
    "977": "oun",
    "978": "cau",
    "979": "der</w>",
    "980": "donc</w>",
    "981": "lec",
    "982": "acte</w>",
    "983": "centre</w>",
    "984": "21</w>",
    "985": "économ",
    "986": "conna",
    "987": "alis",
    "988": "ail</w>",
    "989": "sel",
    "990": "int</w>",
    "991": "19</w>",
    "992": "ra</w>",
    "993": "toute</w>",
    "994": "sig",
    "995": "sub",
    "996": "ill",
    "997": "direc",
    "998": "tous</w>",
    "999": "donn",
    "1000": "mani",
    "1001": "accor",
    "1002": "ss</w>",
    "1003": "enne</w>",
    "1004": "ances</w>",
    "1005": "limi",
    "1006": "autori",
    "1007": "pari",
    "1008": "part</w>",
    "1009": "celu",
    "1010": "bre</w>",
    "1011": "après</w>",
    "1012": "particu",
    "1013": "15</w>",
    "1014": "and</w>",
    "1015": "us</w>",
    "1016": "était</w>",
    "1017": "13</w>",
    "1018": "pose</w>",
    "1019": "selon</w>",
    "1020": "nota",
    "1021": "général</w>",
    "1022": "cara",
    "1023": "ass",
    "1024": "etat</w>",
    "1025": "activi",
    "1026": "endant</w>",
    "1027": "institu",
    "1028": "spéci",
    "1029": "coll",
    "1030": "lem",
    "1031": "fran</w>",
    "1032": "juridique</w>",
    "1033": "dence</w>",
    "1034": "exemp",
    "1035": "assur",
    "1036": "œu",
    "1037": "gran",
    "1038": "néces",
    "1039": "position</w>",
    "1040": "23</w>",
    "1041": "hom",
    "1042": "nous</w>",
    "1043": "impô",
    "1044": "ré</w>",
    "1045": "rég",
    "1046": "lités</w>",
    "1047": "rais",
    "1048": "nor",
    "1049": "fisca",
    "1050": "vel",
    "1051": "toire</w>",
    "1052": "ctionn",
    "1053": "matière</w>",
    "1054": "ha",
    "1055": "lution</w>",
    "1056": "particuli",
    "1057": "termin",
    "1058": "sem",
    "1059": "ssi",
    "1060": "informa",
    "1061": "197",
    "1062": "issance</w>",
    "1063": "lieu</w>",
    "1064": "ations</w>",
    "1065": "compte</w>",
    "1066": "cen",
    "1067": "25</w>",
    "1068": "cher",
    "1069": "personnes</w>",
    "1070": "légis",
    "1071": "déla",
    "1072": "lorsque</w>",
    "1073": "22</w>",
    "1074": "88",
[...]
